<unk>	0
<s>	0
</s>	0
<pad>	0
<mask>	0
<|im_start|>	0
<|im_end|>	0
<0x00>	0
<0x01>	0
<0x02>	0
<0x03>	0
<0x04>	0
<0x05>	0
<0x06>	0
<0x07>	0
<0x08>	0
<0x09>	0
<0x0A>	0
<0x0B>	0
<0x0C>	0
<0x0D>	0
<0x0E>	0
<0x0F>	0
<0x10>	0
<0x11>	0
<0x12>	0
<0x13>	0
<0x14>	0
<0x15>	0
<0x16>	0
<0x17>	0
<0x18>	0
<0x19>	0
<0x1A>	0
<0x1B>	0
<0x1C>	0
<0x1D>	0
<0x1E>	0
<0x1F>	0
<0x20>	0
<0x21>	0
<0x22>	0
<0x23>	0
<0x24>	0
<0x25>	0
<0x26>	0
<0x27>	0
<0x28>	0
<0x29>	0
<0x2A>	0
<0x2B>	0
<0x2C>	0
<0x2D>	0
<0x2E>	0
<0x2F>	0
<0x30>	0
<0x31>	0
<0x32>	0
<0x33>	0
<0x34>	0
<0x35>	0
<0x36>	0
<0x37>	0
<0x38>	0
<0x39>	0
<0x3A>	0
<0x3B>	0
<0x3C>	0
<0x3D>	0
<0x3E>	0
<0x3F>	0
<0x40>	0
<0x41>	0
<0x42>	0
<0x43>	0
<0x44>	0
<0x45>	0
<0x46>	0
<0x47>	0
<0x48>	0
<0x49>	0
<0x4A>	0
<0x4B>	0
<0x4C>	0
<0x4D>	0
<0x4E>	0
<0x4F>	0
<0x50>	0
<0x51>	0
<0x52>	0
<0x53>	0
<0x54>	0
<0x55>	0
<0x56>	0
<0x57>	0
<0x58>	0
<0x59>	0
<0x5A>	0
<0x5B>	0
<0x5C>	0
<0x5D>	0
<0x5E>	0
<0x5F>	0
<0x60>	0
<0x61>	0
<0x62>	0
<0x63>	0
<0x64>	0
<0x65>	0
<0x66>	0
<0x67>	0
<0x68>	0
<0x69>	0
<0x6A>	0
<0x6B>	0
<0x6C>	0
<0x6D>	0
<0x6E>	0
<0x6F>	0
<0x70>	0
<0x71>	0
<0x72>	0
<0x73>	0
<0x74>	0
<0x75>	0
<0x76>	0
<0x77>	0
<0x78>	0
<0x79>	0
<0x7A>	0
<0x7B>	0
<0x7C>	0
<0x7D>	0
<0x7E>	0
<0x7F>	0
<0x80>	0
<0x81>	0
<0x82>	0
<0x83>	0
<0x84>	0
<0x85>	0
<0x86>	0
<0x87>	0
<0x88>	0
<0x89>	0
<0x8A>	0
<0x8B>	0
<0x8C>	0
<0x8D>	0
<0x8E>	0
<0x8F>	0
<0x90>	0
<0x91>	0
<0x92>	0
<0x93>	0
<0x94>	0
<0x95>	0
<0x96>	0
<0x97>	0
<0x98>	0
<0x99>	0
<0x9A>	0
<0x9B>	0
<0x9C>	0
<0x9D>	0
<0x9E>	0
<0x9F>	0
<0xA0>	0
<0xA1>	0
<0xA2>	0
<0xA3>	0
<0xA4>	0
<0xA5>	0
<0xA6>	0
<0xA7>	0
<0xA8>	0
<0xA9>	0
<0xAA>	0
<0xAB>	0
<0xAC>	0
<0xAD>	0
<0xAE>	0
<0xAF>	0
<0xB0>	0
<0xB1>	0
<0xB2>	0
<0xB3>	0
<0xB4>	0
<0xB5>	0
<0xB6>	0
<0xB7>	0
<0xB8>	0
<0xB9>	0
<0xBA>	0
<0xBB>	0
<0xBC>	0
<0xBD>	0
<0xBE>	0
<0xBF>	0
<0xC0>	0
<0xC1>	0
<0xC2>	0
<0xC3>	0
<0xC4>	0
<0xC5>	0
<0xC6>	0
<0xC7>	0
<0xC8>	0
<0xC9>	0
<0xCA>	0
<0xCB>	0
<0xCC>	0
<0xCD>	0
<0xCE>	0
<0xCF>	0
<0xD0>	0
<0xD1>	0
<0xD2>	0
<0xD3>	0
<0xD4>	0
<0xD5>	0
<0xD6>	0
<0xD7>	0
<0xD8>	0
<0xD9>	0
<0xDA>	0
<0xDB>	0
<0xDC>	0
<0xDD>	0
<0xDE>	0
<0xDF>	0
<0xE0>	0
<0xE1>	0
<0xE2>	0
<0xE3>	0
<0xE4>	0
<0xE5>	0
<0xE6>	0
<0xE7>	0
<0xE8>	0
<0xE9>	0
<0xEA>	0
<0xEB>	0
<0xEC>	0
<0xED>	0
<0xEE>	0
<0xEF>	0
<0xF0>	0
<0xF1>	0
<0xF2>	0
<0xF3>	0
<0xF4>	0
<0xF5>	0
<0xF6>	0
<0xF7>	0
<0xF8>	0
<0xF9>	0
<0xFA>	0
<0xFB>	0
<0xFC>	0
<0xFD>	0
<0xFE>	0
<0xFF>	0
、	-3.04485
▁	-3.0497
。	-3.48356
の	-3.7071
は	-4.25378
が	-4.45183
を	-4.54119
に	-4.61084
と	-4.7634
)	-4.76893
,	-4.9582
(	-5.02819
・	-5.0693
で	-5.09789
」	-5.11683
.	-5.3121
年	-5.44193
も	-5.55868
「	-5.67551
月	-5.72024
から	-5.73148
や	-5.75672
▁「	-5.80795
日	-5.86856
し	-5.97348
した	-6.08154
1	-6.20433
:	-6.25201
する	-6.2572
2	-6.26951
な	-6.29131
3	-6.44808
である	-6.45716
-	-6.47782
た	-6.47966
その	-6.48364
して	-6.52773
か	-6.53741
る	-6.56831
▁(	-6.58054
て	-6.58998
では	-6.60654
として	-6.60999
には	-6.70206
お	-6.74877
4	-6.7518
へ	-6.76769
/	-6.77197
s	-6.77628
▁##	-6.7926
という	-6.83344
この	-6.84973
5	-6.85435
です	-6.87378
人	-6.94079
など	-6.96622
』	-6.97894
い	-6.99056
り	-7.00675
大	-7.00832
!	-7.01271
一	-7.01701
6	-7.07183
について	-7.09304
時	-7.19234
された	-7.19841
10	-7.20866
▁###	-7.21168
7	-7.2123
『	-7.24644
だ	-7.24876
8	-7.25651
している	-7.25948
▁-	-7.27542
回	-7.27594
ら	-7.28332
9	-7.28472
って	-7.32239
▁また	-7.35507
による	-7.38202
でも	-7.38913
市	-7.39593
より	-7.40285
分	-7.41098
中	-7.41309
{	-7.41421
く	-7.41949
よ	-7.42892
第	-7.43155
▁and	-7.43516
▁この	-7.44493
▁1	-7.44674
まで	-7.44802
山	-7.4507
ス	-7.45641
等	-7.45806
▁of	-7.45871
▁$	-7.45979
▁the	-7.46023
町	-7.46373
、「	-7.47333
者	-7.47781
ている	-7.47879
き	-7.48078
ました	-7.48152
11	-7.50497
にも	-7.50866
名	-7.5109
った	-7.51522
▁\	-7.52866
12	-7.54347
▁2	-7.55803
本	-7.56163
水	-7.57861
こと	-7.58116
上	-7.58779
す	-7.60613
?	-7.62485
ア	-7.62749
】	-7.62902
さ	-7.64589
み	-7.64804
ない	-7.65039
また	-7.65754
ます	-7.66611
文	-7.66897
的	-7.67184
情報	-7.67272
部	-7.69563
日本	-7.69901
ね	-7.70058
いた	-7.70719
であった	-7.71736
▁第	-7.71887
子	-7.72945
性	-7.73218
ある	-7.74831
i	-7.75192
生	-7.76142
がある	-7.7625
下	-7.76277
研究	-7.76574
的な	-7.76596
によって	-7.77297
金	-7.77876
される	-7.78068
ト	-7.78287
見	-7.78486
長	-7.78813
会	-7.79656
手	-7.80561
年に	-7.80792
30	-7.80844
され	-7.81039
への	-7.81049
▁3	-7.81232
――	-7.81496
数	-7.81531
における	-7.81605
三	-7.81737
により	-7.8278
～	-7.83591
▁【	-7.83938
$	-7.83998
小	-7.84022
大学	-7.84054
活動	-7.84791
つ	-7.85011
事業	-7.86339
さん	-7.87446
A	-7.87492
国	-7.87808
後	-7.88263
において	-7.89181
ク	-7.89518
う	-7.90015
法	-7.90233
▁しかし	-7.90437
ので	-7.9193
田	-7.92079
ながら	-7.92081
S	-7.93452
ため	-7.93519
であり	-7.93876
20	-7.94054
新	-7.94985
だった	-7.95125
化	-7.95153
木	-7.95722
します	-7.95764
二	-7.95962
川	-7.96177
ド	-7.96276
18	-7.98069
内	-7.98275
もの	-7.99348
方	-8.00539
物	-8.0064
前	-8.0111
▁その	-8.01591
家	-8.01797
高	-8.01909
日に	-8.02317
御	-8.02496
力	-8.02773
▁$\	-8.02851
▁『	-8.03016
に関する	-8.03048
]	-8.03106
語	-8.03439
ラ	-8.03691
ズ	-8.043
ように	-8.04474
教育	-8.05285
▁そして	-8.05305
カ	-8.05388
されている	-8.05727
及び	-8.05797
15	-8.06272
e	-8.06578
▁A	-8.0665
......	-8.07042
▁#	-8.07194
▁」	-8.0794
出	-8.0812
C	-8.08378
あ	-8.085
年度	-8.08638
道	-8.08796
ご	-8.09387
m	-8.09514
地域	-8.09816
号	-8.1012
となる	-8.10278
タ	-8.10406
B	-8.10779
_{	-8.10804
ま	-8.1095
}$	-8.11312
用	-8.11692
リ	-8.1278
時間	-8.12971
んだ	-8.13005
t	-8.13012
人の	-8.13125
などの	-8.13235
しました	-8.13336
各	-8.13347
とは	-8.13424
地	-8.13522
}	-8.14002
平成	-8.14157
こ	-8.14423
▁※	-8.1519
ナ	-8.15295
ル	-8.15511
d	-8.15694
▁for	-8.15711
円	-8.15806
目	-8.15862
マ	-8.16512
▁####	-8.16782
所	-8.16889
mathrm	-8.17189
む	-8.17408
ひ	-8.17429
a	-8.17515
▁4	-8.17986
村	-8.18019
事	-8.18062
イ	-8.18846
いる	-8.18887
ことを	-8.19051
口	-8.1951
つて	-8.19659
n	-8.20146
17	-8.20383
島	-8.20485
無	-8.20492
および	-8.20494
野	-8.20735
気	-8.21051
25	-8.21111
英語版	-8.21407
もう	-8.21609
点	-8.21905
コ	-8.22188
行	-8.22194
ロ	-8.22406
わ	-8.22625
同	-8.22648
していた	-8.22889
ノ	-8.23471
え	-8.23768
シ	-8.23912
私は	-8.24386
原	-8.24441
書	-8.25373
め	-8.2542
評価	-8.25439
13	-8.2581
16	-8.26103
支援	-8.26107
土	-8.26203
社会	-8.26291
に対する	-8.26336
心	-8.26607
自分の	-8.26696
になる	-8.26738
14	-8.26784
▁in	-8.27479
不	-8.27573
できる	-8.27893
ツ	-8.28078
y	-8.28092
▁S	-8.28092
よく	-8.28586
F	-8.28677
平	-8.29249
学	-8.29298
今	-8.29781
間	-8.29859
環境	-8.30341
よう	-8.30437
となった	-8.3052
ような	-8.31153
エ	-8.31299
ing	-8.31411
そう	-8.31953
代	-8.32218
つた	-8.32234
フ	-8.3249
ー	-8.32541
光	-8.33143
D	-8.33317
約	-8.33528
ば	-8.34035
オ	-8.35155
に対して	-8.35177
レ	-8.35227
データ	-8.35228
ッ	-8.35656
ム	-8.35911
センター	-8.35945
にて	-8.36035
技術	-8.36213
なり	-8.36263
表現	-8.36743
立	-8.3694
神	-8.3716
西	-8.37572
T	-8.37666
システム	-8.37856
▁In	-8.37891
的に	-8.3796
東	-8.38063
ふ	-8.38206
外	-8.38217
27	-8.38418
28	-8.38443
ず	-8.3851
jp	-8.38684
風	-8.38861
位	-8.38982
何	-8.39012
ていた	-8.39033
いて	-8.39084
▁5	-8.39176
24	-8.39788
PDF	-8.39857
南	-8.40148
海	-8.40171
ほど	-8.40199
表	-8.40256
26	-8.40422
KB	-8.40595
?」	-8.40697
女	-8.40759
N	-8.40769
サ	-8.40856
なら	-8.41013
先	-8.41195
にある	-8.41226
それ	-8.41386
東京	-8.41392
たい	-8.41588
石	-8.41721
in	-8.41722
しています	-8.41823
ニ	-8.41856
とも	-8.41956
室	-8.42036
P	-8.42104
関係	-8.42241
://	-8.42359
火	-8.42637
M	-8.43295
作	-8.43594
型	-8.43737
っている	-8.43758
K	-8.43987
日本の	-8.44504
場	-8.446
21	-8.44844
29	-8.45008
k	-8.45089
学習	-8.45145
天	-8.4537
元	-8.45644
バ	-8.45781
=	-8.45925
については	-8.46261
19	-8.46333
ダ	-8.46426
モデル	-8.46703
のように	-8.47195
キ	-8.47429
H	-8.47592
いい	-8.47606
戦	-8.47668
企業	-8.48042
b	-8.48125
文化	-8.48194
白	-8.48202
美	-8.4833
施設	-8.48439
問題	-8.48443
正	-8.48831
北	-8.49478
▁[	-8.49531
のである	-8.49551
▁pp	-8.49726
”	-8.49839
」「	-8.4988
22	-8.50011
なる	-8.50206
等の	-8.50458
世界	-8.50631
>	-8.5084
p	-8.51444
形	-8.51534
のみ	-8.51553
c	-8.51788
ち	-8.51893
のか	-8.5197
デ	-8.52054
...	-8.52276
ぬ	-8.52455
イベント	-8.52799
ています	-8.52842
屋	-8.5289
線	-8.53028
23	-8.53105
和	-8.53205
男	-8.53664
生活	-8.53678
調査	-8.53759
のです	-8.53803
団体	-8.53907
ミ	-8.53974
なく	-8.54034
ことは	-8.54266
度	-8.5435
ガ	-8.54661
あの	-8.5471
られた	-8.54738
になった	-8.54788
チ	-8.54905
G	-8.54908
計画	-8.54913
al	-8.54981
ジ	-8.55018
ed	-8.5503
話	-8.5537
er	-8.55431
ん	-8.55508
あり	-8.55772
▁M	-8.55984
じ	-8.56017
▁平成	-8.56242
"	-8.56866
学校	-8.56904
体	-8.56923
面	-8.57151
城	-8.57695
け	-8.57782
食	-8.57782
ハ	-8.57905
八	-8.58033
それを	-8.58034
それは	-8.58341
図	-8.58727
リー	-8.58784
大きな	-8.58797
R	-8.58954
なかった	-8.59067
o	-8.59147
モ	-8.59177
氏	-8.59208
社	-8.59243
内容	-8.59823
花	-8.59938
でした	-8.6004
結果	-8.60054
全	-8.60093
れ	-8.60431
ネ	-8.60464
▁C	-8.60469
月に	-8.60666
利用	-8.6078
.,	-8.61146
W	-8.61291
作品	-8.61347
来	-8.61352
万	-8.61419
サービス	-8.6148
明	-8.61598
開発	-8.61752
んで	-8.61843
馬	-8.61926
グ	-8.62059
空	-8.62206
人間	-8.62208
昭和	-8.62292
ン	-8.62414
u	-8.62476
w	-8.62862
場合	-8.62932
通	-8.63074
頭	-8.63148
ことが	-8.63492
x	-8.63643
相談	-8.63689
f	-8.64115
L	-8.64297
らしい	-8.64305
のだ	-8.64308
式	-8.64333
すること	-8.64785
大会	-8.6497
▁B	-8.65089
▁a	-8.65135
とする	-8.65278
▁to	-8.65354
着	-8.65358
▁P	-8.65483
四	-8.65636
まだ	-8.65701
ばかり	-8.6584
五	-8.66552
入	-8.66633
th	-8.66927
を行う	-8.66945
愛	-8.67053
松	-8.67054
公	-8.67122
方法	-8.67141
多	-8.67214
私の	-8.67515
せ	-8.67555
管理	-8.67616
ために	-8.67618
主	-8.67776
制度	-8.67915
曲	-8.67935
人が	-8.68088
別	-8.68307
r	-8.68348
身	-8.68515
J	-8.68685
資料	-8.68763
メ	-8.68848
のために	-8.68911
映画	-8.68926
王	-8.69201
々	-8.69275
▁私は	-8.69427
ブ	-8.69461
_	-8.69475
有	-8.6964
経済	-8.69705
国際	-8.69714
よりも	-8.69775
ウ	-8.69921
夜	-8.70394
▁T	-8.70569
▁on	-8.70573
何か	-8.70658
開催	-8.70711
新しい	-8.70824
課	-8.70836
期	-8.7115
次	-8.71171
条	-8.71194
状況	-8.71272
言語	-8.71372
〜	-8.71493
h	-8.71515
▁E	-8.71605
他の	-8.71653
版	-8.71775
船	-8.71954
門	-8.71955
吉	-8.71995
彼は	-8.71999
31	-8.72005
番	-8.72422
郡	-8.72471
E	-8.72579
パ	-8.72765
相	-8.72842
▁>	-8.72988
グループ	-8.73009
のある	-8.73157
駅	-8.73162
音	-8.7326
!」	-8.73308
六	-8.73322
そして	-8.7363
谷	-8.73668
があり	-8.73713
すると	-8.73846
これ	-8.7391
だけ	-8.7403
ところ	-8.74187
多くの	-8.74217
場所	-8.74531
軍	-8.74802
とともに	-8.7485
重	-8.74858
様	-8.74907
州	-8.7495
女性	-8.74994
となり	-8.7515
▁――	-8.75161
▁6	-8.75184
▁10	-8.75224
テ	-8.75496
になって	-8.75512
ください	-8.75684
ビ	-8.75718
▁F	-8.75785
流	-8.75799
色	-8.75984
マン	-8.76041
時に	-8.76139
音楽	-8.76252
例	-8.76636
または	-8.76879
体験	-8.76954
論	-8.76998
のような	-8.77173
▁K	-8.77405
right	-8.77451
世	-8.77564
館	-8.77637
医療	-8.77874
g	-8.77959
ると	-8.78025
車	-8.78077
寺	-8.78514
学生	-8.78584
ぎ	-8.78637
直	-8.78716
があった	-8.78996
足	-8.79142
left	-8.79275
彼の	-8.7937
台	-8.79446
発	-8.7945
といふ	-8.79471
古	-8.79781
ページ	-8.80064
感	-8.80146
通り	-8.80198
I	-8.8023
ことで	-8.80244
階	-8.80603
合	-8.80935
課題	-8.80958
歌	-8.80986
私	-8.81041
局	-8.8127
こう	-8.81355
イン	-8.81393
機能	-8.81757
れば	-8.82029
賞	-8.82243
君	-8.824
▁&	-8.82429
半	-8.82542
宮	-8.8315
プログラム	-8.83162
安	-8.83198
報告	-8.83226
登録	-8.83454
参加	-8.83473
産業	-8.83744
これは	-8.83914
品	-8.83918
つの	-8.83981
プロジェクト	-8.84084
実験	-8.84136
l	-8.84437
での	-8.84438
にして	-8.84458
前に	-8.84649
初	-8.84672
真	-8.84696
年の	-8.84757
井	-8.84757
発表	-8.85244
います	-8.85381
手法	-8.85501
ぞ	-8.85519
他	-8.85727
中の	-8.85988
▁○	-8.86159
ティ	-8.86298
X	-8.86326
プ	-8.86393
とか	-8.86469
だろう	-8.86783
総合	-8.8695
株式会社	-8.87058
っ	-8.87103
区	-8.87175
会議	-8.87366
▁これは	-8.874
様々な	-8.87544
それが	-8.87552
少し	-8.87603
j	-8.87831
アン	-8.87837
とき	-8.87864
▁2019	-8.87923
機	-8.8803
の中で	-8.88245
チーム	-8.88251
▁なお	-8.88266
50	-8.88396
成	-8.88509
O	-8.88584
or	-8.88819
両	-8.88846
科	-8.89245
ではない	-8.89382
店	-8.89598
言	-8.89981
関連	-8.90195
▁■	-8.90241
勝	-8.90403
後に	-8.90453
公開	-8.90526
代表	-8.90582
とした	-8.90761
対応	-8.90799
v	-8.90888
黒	-8.91025
七	-8.91055
といった	-8.91109
▁彼は	-8.9129
られる	-8.91556
対策	-8.91664
▁2020	-8.91822
ディ	-8.91985
▁R	-8.9203
人は	-8.92255
ねえ	-8.92496
死	-8.92842
官	-8.92929
び	-8.92937
▁お	-8.92966
会社	-8.93444
量	-8.93474
かな	-8.93511
からの	-8.93636
ケ	-8.93677
▁J	-8.93709
』(	-8.94061
分析	-8.94065
同じ	-8.94072
ど	-8.9408
値	-8.9411
▁7	-8.94804
をして	-8.94836
対	-8.95032
単語	-8.95052
の中に	-8.95063
実	-8.95149
自然	-8.95159
系	-8.95254
役	-8.95379
スポーツ	-8.9553
朝	-8.9556
出した	-8.95768
@	-8.95818
取り	-8.96018
選手	-8.96208
対象	-8.9621
ゴ	-8.96289
さらに	-8.96296
Y	-8.96358
左	-8.96599
ヤ	-8.96763
企画	-8.96904
思い	-8.96938
▁2018	-8.96952
千	-8.97051
当	-8.97075
組織	-8.97198
家の	-8.97205
放送	-8.97218
中に	-8.97221
しない	-8.97221
春	-8.97317
戸	-8.97575
母	-8.97708
其	-8.97861
又	-8.97868
夢	-8.9797
検査	-8.98198
味	-8.98235
そ	-8.98247
ろ	-8.98429
図書館	-8.98431
▁その後	-8.9853
上の	-8.98625
実施	-8.98674
っていた	-8.9869
'	-8.98812
▁Proceedings	-8.9893
}\	-8.98969
授業	-8.99087
草	-8.99089
説明	-8.99148
橋	-8.99293
▁本	-8.99345
セ	-8.99355
V	-8.99448
雨	-8.99502
意味	-8.99776
組	-8.99843
ワ	-8.99848
節	-8.99971
仕事	-9
www	-9.00014
歳	-9.00121
予定	-9.00185
協会	-9.00236
義	-9.00648
一人	-9.00882
種	-9.0092
江	-9.01098
▁8	-9.01186
▁2021	-9.01243
されて	-9.01244
清	-9.01801
▁I	-9.0189
委員会	-9.01948
ザ	-9.02191
丸	-9.02199
100	-9.02236
字	-9.02418
英	-9.02631
40	-9.02644
訳	-9.02665
都市	-9.02715
病院	-9.02725
考え	-9.02798
定	-9.02806
以上	-9.02871
居	-9.02881
先生	-9.03024
▁2023	-9.03029
のための	-9.03157
▁そこで	-9.03198
来た	-9.03238
文書	-9.03249
英語	-9.03301
知	-9.03465
▁D	-9.03484
U	-9.03505
変	-9.03546
集	-9.03581
期間	-9.03872
▁H	-9.04
親	-9.04063
史	-9.04124
写真	-9.04128
科学	-9.04166
ぶ	-9.04592
\	-9.04619
自	-9.04637
[	-9.04666
座	-9.04685
業	-9.0472
を持つ	-9.04747
之	-9.04755
者の	-9.04807
▁表	-9.04962
なし	-9.05151
▁それは	-9.05245
作業	-9.05379
▁G	-9.05491
ただ	-9.05689
じゃ	-9.05869
特に	-9.05901
眼	-9.05948
を用いて	-9.05959
サイト	-9.05986
岩	-9.05994
en	-9.06146
はない	-9.06156
構造	-9.06161
だから	-9.06174
どう	-9.06248
▁"	-9.06259
ヒ	-9.06327
ac	-9.06355
健康	-9.06529
病	-9.06547
絵	-9.06615
担当	-9.0668
観光	-9.06709
0	-9.06763
波	-9.06811
そんな	-9.06932
悪	-9.0713
夫	-9.07207
立ち	-9.0721
血	-9.0725
テキスト	-9.07451
県	-9.07592
経営	-9.07596
非	-9.07655
がない	-9.07738
......」	-9.07971
画像	-9.08083
ソ	-9.08199
市民	-9.08266
」(	-9.08399
ター	-9.08463
日本語	-9.08533
のうち	-9.0854
le	-9.08588
旧	-9.08707
分類	-9.0877
ファイル	-9.09076
記録	-9.0909
▁図	-9.0919
to	-9.09196
ゲーム	-9.09236
小学校	-9.09247
を用いた	-9.09297
しながら	-9.09316
を見	-9.0935
太	-9.09394
展示	-9.09535
記	-9.09574
プロ	-9.09584
▁9	-9.09752
さま	-9.09825
質問	-9.09871
でしょう	-9.1012
講座	-9.10216
声	-9.10284
運動	-9.10474
コン	-9.10504
デザイン	-9.10551
を含む	-9.10577
だが	-9.10616
ており	-9.10737
引	-9.10787
年間	-9.10892
紹介	-9.10896
総	-9.10927
アル	-9.11129
文字	-9.11234
尾	-9.11257
販売	-9.11274
&	-9.11277
余	-9.11359
しい	-9.11367
ものである	-9.11585
▁2017	-9.11621
士	-9.11635
ボ	-9.1164
使用	-9.1164
試験	-9.11664
▁${	-9.11673
里	-9.11735
信	-9.11744
▁W	-9.11851
政策	-9.11909
▁N	-9.11985
条件	-9.11996
林	-9.1202
リン	-9.12079
もない	-9.12154
論文	-9.12195
の上に	-9.12296
連携	-9.12335
しか	-9.12422
ですが	-9.12629
現	-9.12638
+	-9.12639
▁●	-9.12761
タスク	-9.12881
熱	-9.1293
教授	-9.12967
顔	-9.13029
年から	-9.13057
知識	-9.13095
コーパス	-9.13169
校	-9.13199
があります	-9.1328
すぐ	-9.13322
text	-9.13427
事例	-9.13645
ラー	-9.1366
▁|	-9.13668
最も	-9.13768
米	-9.13857
赤	-9.13892
たる	-9.14052
横	-9.14105
機関	-9.14167
シュ	-9.1421
ぐ	-9.14277
特別	-9.14355
説	-9.14413
ポ	-9.14505
地方	-9.14578
バー	-9.14607
られ	-9.14715
紙	-9.14718
を行った	-9.14766
器	-9.14817
以下	-9.14918
させる	-9.14961
▁2022	-9.15075
研修	-9.15146
額	-9.1519
令和	-9.15251
翻訳	-9.1532
員	-9.15526
一つ	-9.15532
くる	-9.15709
薬	-9.15758
状態	-9.15788
葉	-9.15814
com	-9.1583
助	-9.15845
民	-9.15922
▁日本	-9.16078
00	-9.16142
“	-9.16152
場合は	-9.162
十	-9.16318
根	-9.16418
久	-9.16748
になり	-9.16821
沢	-9.16915
ly	-9.17086
したい	-9.17149
政	-9.17154
治	-9.17401
ること	-9.17441
権	-9.17496
まず	-9.17622
バス	-9.17835
時代	-9.17836
ほ	-9.17927
カー	-9.18056
となっている	-9.18099
形式	-9.18118
利	-9.18118
理解	-9.18146
もある	-9.18173
こんな	-9.18178
|	-9.18206
星	-9.18273
検索	-9.18338
60	-9.1843
玉	-9.18616
守	-9.1876
夏	-9.18786
処理	-9.18997
取	-9.19107
ット	-9.19108
どんな	-9.19188
これを	-9.19257
右	-9.19263
明治	-9.193
サン	-9.19338
路	-9.19484
兵	-9.19678
ホ	-9.19713
決定	-9.19738
;	-9.19757
雪	-9.1983
客	-9.19899
を行い	-9.19938
地区	-9.20001
アメリカ	-9.20038
▁2016	-9.20128
それぞれ	-9.20156
▁......	-9.20277
巻	-9.20287
だと	-9.20325
青	-9.20394
z	-9.20431
記事	-9.20528
と共に	-9.20586
おり	-9.20666
▁Association	-9.21316
あるいは	-9.21435
高い	-9.21486
見る	-9.21614
父	-9.21626
であろう	-9.21628
活用	-9.2169
としては	-9.21784
中央	-9.21825
連	-9.2196
竹	-9.21961
▁さらに	-9.21965
運営	-9.22018
▁Computational	-9.22207
あった	-9.2238
差	-9.22458
▁O	-9.22897
ことに	-9.22897
編	-9.22916
さう	-9.23101
▁令和	-9.23242
けれど	-9.23256
!!	-9.23337
らない	-9.23353
良	-9.23385
産	-9.23399
れる	-9.23423
▁L	-9.23432
たり	-9.2346
酒	-9.23509
楽	-9.23575
行く	-9.23592
しており	-9.23719
まして	-9.23752
のお	-9.23761
よい	-9.23764
武	-9.2378
▁Linguistics	-9.23795
九	-9.23878
とても	-9.24085
ません	-9.24156
率	-9.24194
部分	-9.24215
角	-9.24261
現在	-9.24329
歴史	-9.24343
のため	-9.24444
さんは	-9.24452
▁https	-9.24466
群	-9.24578
と思う	-9.24605
と思います	-9.24675
日から	-9.24724
院	-9.24782
蔵	-9.24832
子ども	-9.24849
入力	-9.24876
案内	-9.24908
業務	-9.25014
▁0	-9.25026
百	-9.25089
【	-9.25207
学会	-9.25308
初めて	-9.25328
目的	-9.25463
ではなく	-9.25553
いや	-9.25633
▁12	-9.25645
此	-9.25733
をする	-9.25854
st	-9.25862
データセット	-9.25883
解	-9.26053
▁11	-9.2616
きた	-9.26266
スト	-9.26289
指導	-9.26388
好	-9.27061
対話	-9.27081
太郎	-9.27378
番組	-9.27407
を受け	-9.27508
個人	-9.27527
片	-9.27643
起	-9.27665
新たな	-9.27705
―	-9.27779
▁(1)	-9.27831
下さい	-9.27852
コース	-9.27967
べ	-9.28032
宿	-9.28057
かった	-9.28066
類	-9.28068
顔を	-9.28075
んです	-9.28095
見た	-9.28135
高校	-9.28173
協力	-9.28203
経験	-9.28251
などを	-9.28385
出し	-9.28432
れた	-9.2861
▁No	-9.28745
堂	-9.2903
再	-9.29079
ピ	-9.29099
切	-9.29253
ロー	-9.29284
ギ	-9.29285
章	-9.29321
el	-9.29462
してください	-9.29716
後の	-9.29749
つき	-9.29832
トン	-9.29835
費	-9.29946
能力	-9.29991
省	-9.3004
▁Conference	-9.30076
交流	-9.30094
感じ	-9.30106
画	-9.30166
津	-9.30176
テーマ	-9.30368
もなく	-9.30446
ほか	-9.30465
付	-9.3047
商品	-9.30504
ものは	-9.30607
作成	-9.30634
基準	-9.3066
前の	-9.30831
雲	-9.3103
確認	-9.3119
伝	-9.31261
級	-9.31263
文学	-9.31273
▁with	-9.31552
雄	-9.31572
日の	-9.31835
・・・	-9.31925
料理	-9.32094
近	-9.32171
都	-9.32216
▁<	-9.32251
an	-9.32274
開始	-9.32281
行動	-9.32291
教	-9.32411
意識	-9.325
ラン	-9.32618
監督	-9.32647
芸術	-9.3273
広	-9.32791
)$	-9.32793
会場	-9.32836
自分	-9.32982
ベ	-9.33139
湯	-9.33148
老	-9.33347
会員	-9.33357
つく	-9.33414
映像	-9.3348
者は	-9.33499
ボランティア	-9.33697
席	-9.3371
上で	-9.33751
内の	-9.33899
中国	-9.33904
岡	-9.3394
落	-9.34004
所属	-9.34015
海外	-9.34021
必要	-9.34074
達	-9.34078
入り	-9.34306
出す	-9.34355
ペ	-9.34399
できない	-9.344
boldsymbol	-9.34543
▁(2)	-9.34723
変更	-9.34793
ラベル	-9.34832
全国	-9.34846
▁2015	-9.34907
ものを	-9.34909
解析	-9.34935
であつた	-9.34971
計	-9.35019
空間	-9.35061
異	-9.35125
造	-9.35162
01	-9.35293
メール	-9.35595
)」	-9.35641
来て	-9.35688
申請	-9.35702
園	-9.35706
ちょっと	-9.3573
年には	-9.35739
次の	-9.35753
縁	-9.35789
委員	-9.3589
行った	-9.35938
自動車	-9.36016
することで	-9.36026
▁Language	-9.36036
検討	-9.361
研究所	-9.36204
ホテル	-9.36207
変化	-9.36265
板	-9.36303
来る	-9.36314
防災	-9.36347
災害	-9.36457
増	-9.36462
なかつた	-9.36478
80	-9.36561
▁The	-9.366
鉄	-9.36633
のない	-9.3667
進	-9.36827
ましょう	-9.36827
制	-9.36833
頃	-9.36843
開	-9.36895
腹	-9.36909
師	-9.36952
ひと	-9.36972
戦争	-9.36996
出して	-9.37024
秋	-9.37072
訓練	-9.37105
行政	-9.37175
命	-9.37222
層	-9.37254
家族	-9.37395
設定	-9.37524
ちゃん	-9.37581
ろう	-9.3763
いった	-9.37657
第一	-9.37675
教室	-9.37675
人物	-9.37716
認定	-9.3773
議論	-9.37762
指定	-9.37785
端	-9.37888
生まれ	-9.37897
学部	-9.37936
皆	-9.3798
生成	-9.38007
早く	-9.38146
マー	-9.38187
大阪	-9.38251
放	-9.38296
分野	-9.38517
クラブ	-9.38637
さえ	-9.38746
70	-9.38755
坂	-9.38808
人に	-9.38825
を通じて	-9.38833
▁2.	-9.38897
者が	-9.38971
部門	-9.3906
樹	-9.39096
在	-9.39121
森	-9.39123
新聞	-9.39286
▁18	-9.39315
募集	-9.39323
参加者	-9.39384
こそ	-9.39384
質	-9.39476
いたします	-9.3956
犬	-9.39612
事を	-9.3966
契約	-9.39662
づくり	-9.39732
程	-9.39764
回答	-9.39867
それに	-9.39889
京	-9.39898
制作	-9.39937
地域の	-9.39992
その後	-9.40198
残	-9.40333
一般	-9.404
良い	-9.40436
藤	-9.40443
ことができる	-9.40458
年生	-9.40463
祭	-9.40473
女子	-9.40521
▁al	-9.40532
re	-9.40588
電	-9.40763
私が	-9.40763
小さな	-9.4081
肉	-9.40825
▁{	-9.4084
手を	-9.40842
推進	-9.40849
子は	-9.40936
それから	-9.40965
▁1.	-9.4105
ぼ	-9.41092
学科	-9.41106
の方	-9.41117
深	-9.41179
公園	-9.41212
事件	-9.41217
アルバム	-9.4128
子供	-9.41578
ビジネス	-9.41774
ネットワーク	-9.41786
いました	-9.41837
シー	-9.41903
気が	-9.42015
鳥	-9.42017
強	-9.42106
をした	-9.4216
シリーズ	-9.42164
志	-9.42218
骨	-9.42235
引き	-9.42243
、『	-9.42256
on	-9.4227
ソン	-9.42296
ation	-9.42318
さんの	-9.42329
案	-9.42389
ことから	-9.4242
▁et	-9.42568
詩	-9.42699
農業	-9.42758
転	-9.42772
若	-9.42804
パン	-9.42852
間の	-9.43005
を見て	-9.43049
安全	-9.43066
ぜ	-9.43085
難	-9.43122
首	-9.43158
加	-9.4319
情	-9.43202
にとって	-9.4322
枝	-9.43297
香	-9.43298
効果	-9.43308
断	-9.43375
我	-9.43403
やはり	-9.43426
若い	-9.43437
税	-9.43455
徳	-9.435
us	-9.43571
福祉	-9.43689
▁/	-9.43715
治療	-9.43817
あまり	-9.43862
}^{	-9.4387
魚	-9.43959
▁http	-9.4406
一覧	-9.44141
すれば	-9.44301
家庭	-9.44432
目標	-9.44481
▁is	-9.44557
かい	-9.44621
ですね	-9.44628
毛	-9.4465
されていた	-9.44652
ものの	-9.44784
をもって	-9.44794
▁*	-9.44806
になっている	-9.44884
動画	-9.44923
ならば	-9.45011
させ	-9.45016
フランス	-9.45031
▁それから	-9.45063
茶	-9.45072
諸	-9.45277
▁大	-9.45336
▁各	-9.45395
注意	-9.45446
素	-9.45452
又は	-9.45455
関	-9.45476
事実	-9.45603
長い	-9.45647
しく	-9.45666
認識	-9.45835
打	-9.4584
さんが	-9.45959
されました	-9.46115
調	-9.46166
▁2014	-9.46181
を示す	-9.46198
自己	-9.46246
寝	-9.46291
政治	-9.46303
羽	-9.4644
小説	-9.46447
要	-9.46517
隊	-9.46549
わけ	-9.46577
宗	-9.46607
提供	-9.46662
ro	-9.46671
まい	-9.46686
受付	-9.46713
得	-9.46719
中学校	-9.46783
セミナー	-9.4682
非常に	-9.46879
割	-9.46892
政府	-9.46911
メディア	-9.46933
方が	-9.47026
見て	-9.47084
鉄道	-9.47144
es	-9.47215
みんな	-9.47263
られて	-9.47277
とし	-9.47393
けれども	-9.47401
生産	-9.47424
そこに	-9.47451
}_{	-9.47523
▁p	-9.47526
細胞	-9.47596
ものが	-9.47649
法人	-9.47703
っと	-9.47746
言葉	-9.47816
かつ	-9.47828
午後	-9.47848
に基づく	-9.47903
可	-9.47996
塩	-9.48006
ホームページ	-9.48106
書き	-9.4816
医	-9.4822
もっと	-9.48278
聖	-9.48354
党	-9.4841
▁2013	-9.48516
あれ	-9.48569
副	-9.4875
全く	-9.48848
においては	-9.48945
時の	-9.48946
極	-9.49006
試合	-9.49132
列	-9.49142
浜	-9.49152
会長	-9.49322
リング	-9.49326
シーズン	-9.49502
向け	-9.49584
旅	-9.49592
観	-9.49595
ヌ	-9.49678
いま	-9.49696
めて	-9.49699
低	-9.4972
指	-9.49747
希望	-9.50114
市場	-9.50132
いつも	-9.50134
ごとに	-9.50149
と云う	-9.50162
経	-9.50219
奥	-9.50324
労働	-9.50376
やうな	-9.50472
04	-9.50492
団	-9.50595
江戸	-9.50679
妻	-9.50686
永	-9.50766
させた	-9.50897
切り	-9.50943
たち	-9.5096
てゐる	-9.51017
文章	-9.51033
意	-9.51033
職	-9.51105
番号	-9.51129
やうに	-9.51178
ne	-9.51234
2020	-9.51259
幸	-9.51265
洋	-9.51369
友	-9.51406
からは	-9.51496
しかし	-9.51565
35	-9.51596
の大	-9.51649
理由	-9.51669
選択	-9.51776
ゐる	-9.51857
のですが	-9.51941
らしく	-9.51987
未	-9.52001
読み	-9.52006
交	-9.5202
つてゐる	-9.52078
の場合	-9.52088
を経て	-9.52132
反	-9.52192
いく	-9.52225
付け	-9.52243
を受けた	-9.52277
go	-9.52318
アジア	-9.52321
無料	-9.52419
いない	-9.5246
自由	-9.52532
▁#####	-9.52549
温泉	-9.5256
というのは	-9.52602
敵	-9.52614
あたり	-9.52685
見ると	-9.5274
▁今	-9.52749
出場	-9.52789
なお	-9.52862
いう	-9.52884
成長	-9.52914
ニュース	-9.52941
源	-9.52985
職員	-9.53114
項	-9.53137
メンバー	-9.53159
電話	-9.53195
件	-9.53202
異なる	-9.53366
折	-9.53376
教員	-9.53436
以下の	-9.53469
笑	-9.53473
ですか	-9.53711
すべての	-9.5373
候補	-9.53744
se	-9.53809
に対し	-9.53956
一番	-9.53974
街	-9.54002
タイ	-9.54008
格	-9.54025
込み	-9.54082
かけ	-9.54119
美しい	-9.54126
の結果	-9.54128
再び	-9.54147
ホール	-9.54233
子の	-9.54235
一つの	-9.54278
感情	-9.54287
展	-9.54302
高等学校	-9.54424
ことも	-9.54453
と同じ	-9.54469
▁\\	-9.54476
込んで	-9.54499
眼を	-9.54521
毎日	-9.54648
医師	-9.54654
程度	-9.54692
主義	-9.54701
配信	-9.54718
娘	-9.54875
アー	-9.54955
付き	-9.55077
に向けて	-9.55095
の間に	-9.55142
理	-9.55189
現在の	-9.5529
持	-9.55326
君は	-9.55387
殿	-9.55407
クラス	-9.5569
それぞれの	-9.55708
もので	-9.55739
持ち	-9.55766
さまざまな	-9.55769
すべき	-9.55965
専門	-9.56006
行き	-9.5601
状	-9.5614
床	-9.56181
の方へ	-9.56325
議会	-9.56399
▁住所	-9.56421
報	-9.56443
判断	-9.56474
弾	-9.5649
事務所	-9.56531
未来	-9.5678
国民	-9.56789
ものです	-9.56794
建設	-9.56807
リスク	-9.56816
予測	-9.56831
ということ	-9.56883
カル	-9.56887
全体	-9.56901
うち	-9.56936
it	-9.56966
つつ	-9.56979
のこと	-9.5699
Q	-9.57004
▁f	-9.57027
ジャ	-9.5707
児童	-9.57142
つけ	-9.57151
▁V	-9.57356
講義	-9.5741
出身	-9.57426
を持って	-9.57431
がん	-9.57649
京都	-9.5769
機会	-9.57736
05	-9.57806
早	-9.57876
なので	-9.57971
したり	-9.57978
卒業	-9.57987
▁ただし	-9.57998
と考えられる	-9.58014
僕は	-9.58026
撮影	-9.58032
リスト	-9.58038
そうな	-9.58071
要素	-9.5811
ゆ	-9.58213
目に	-9.5824
保	-9.58258
ファ	-9.58389
45	-9.58603
存在	-9.58667
裏	-9.58716
過	-9.58739
博物館	-9.58771
ネット	-9.58778
直接	-9.58781
▁2012	-9.58785
深い	-9.58867
♪	-9.58917
ものだ	-9.58929
電気	-9.58989
終了	-9.59021
崎	-9.59036
一度	-9.59051
だけで	-9.59068
今日	-9.59076
はこちら	-9.59081
ポイント	-9.59113
派	-9.59124
07	-9.59143
改善	-9.592
これらの	-9.59231
ヴィ	-9.59313
かく	-9.59318
張	-9.59329
時には	-9.59335
06	-9.59476
走	-9.59637
細	-9.5972
準備	-9.59733
重要な	-9.5974
を通して	-9.59758
セット	-9.59956
シャ	-9.60031
デジタル	-9.60084
渡	-9.601
側	-9.6018
牛	-9.60233
ar	-9.60257
内に	-9.60326
02	-9.60331
エン	-9.6035
常	-9.60409
カン	-9.60435
二人	-9.60606
白い	-9.60614
れて	-9.60617
としての	-9.60704
ゲ	-9.60714
no	-9.60728
薄	-9.60736
ダー	-9.60742
参照	-9.60742
人間の	-9.60787
領域	-9.60811
ジェ	-9.60834
そういう	-9.60855
すべて	-9.609
精神	-9.60932
計算	-9.60989
東京都	-9.61019
▁◆	-9.61125
像	-9.61216
90	-9.61298
_{\	-9.6131
工	-9.61384
以上の	-9.61392
くらい	-9.61495
ドイツ	-9.61527
へと	-9.61559
為	-9.61631
レン	-9.6164
設計	-9.61742
電子	-9.61802
輪	-9.61844
複数の	-9.61914
自ら	-9.6193
ri	-9.61967
▁3.	-9.6197
学び	-9.61972
段	-9.6208
以来	-9.62092
ざ	-9.62122
期待	-9.62211
青年	-9.62223
居る	-9.6242
冬	-9.62453
ところで	-9.62544
体制	-9.62557
ハイ	-9.62723
矢	-9.62906
▁一	-9.62916
遠	-9.62932
価格	-9.62938
許	-9.62962
項目	-9.62973
町の	-9.62984
でございます	-9.63038
平均	-9.63092
▁それ	-9.63103
ta	-9.63108
されています	-9.63112
鼻	-9.63194
まち	-9.6325
復興	-9.63268
急	-9.63336
仕	-9.63373
万円	-9.63387
意見	-9.63399
まる	-9.63426
善	-9.63426
の研究	-9.63462
更新	-9.63473
氣	-9.63493
だつた	-9.6356
推定	-9.63562
てきた	-9.63611
建築	-9.63631
誌	-9.63655
池	-9.63673
兄	-9.63745
を中心に	-9.63751
製	-9.6376
動	-9.63797
服	-9.63819
言い	-9.63838
リーグ	-9.63909
宇宙	-9.64089
フィ	-9.64168
▁BERT	-9.64242
ニー	-9.64255
ほう	-9.64274
大変	-9.64277
ゼ	-9.64316
どの	-9.64354
になりました	-9.64357
だけでなく	-9.64389
国の	-9.64486
北海道	-9.64545
博士	-9.64566
河	-9.64629
向	-9.64655
句	-9.64753
心配	-9.64951
庁	-9.6499
彦	-9.65067
▁だが	-9.65078
秒	-9.65169
たら	-9.65173
ヘ	-9.65295
ための	-9.65295
製品	-9.65381
とその	-9.65464
女の	-9.65495
げ	-9.65522
サポート	-9.65562
co	-9.65568
一緒に	-9.65591
テレビ	-9.65658
ma	-9.65683
筋	-9.65686
オンライン	-9.65854
住民	-9.65946
コメント	-9.65968
なか	-9.65993
勢	-9.66083
当時	-9.66096
男性	-9.66216
だって	-9.66291
強い	-9.66324
掲載	-9.66338
脳	-9.66361
ック	-9.66371
33	-9.66391
したが	-9.66398
連続	-9.66422
動物	-9.665
ベル	-9.66537
させて	-9.66569
更に	-9.66597
佐	-9.66603
工事	-9.66706
料	-9.6675
姿	-9.66768
講演	-9.66778
していく	-9.66789
夕	-9.66807
幾	-9.66851
▁例えば	-9.66883
出力	-9.6693
豊	-9.66933
本当に	-9.66983
発話	-9.67014
物語	-9.67028
窓	-9.67032
児	-9.67033
小さい	-9.67323
としても	-9.67402
Z	-9.67414
is	-9.67517
言った	-9.67525
08	-9.67585
言う	-9.67609
応募	-9.67718
上げ	-9.67789
単位	-9.67876
能	-9.67879
になります	-9.67912
作り	-9.68019
せる	-9.68072
ことがある	-9.68124
入れ	-9.68139
はその	-9.68144
越	-9.68212
チャ	-9.68242
自分が	-9.68246
まあ	-9.6826
瀬	-9.6833
すぐに	-9.68391
以外の	-9.68526
そのまま	-9.68552
行って	-9.68605
<	-9.68621
保存	-9.68641
▁これらの	-9.68654
を取り	-9.68684
身体	-9.68709
上に	-9.68716
市長	-9.68739
審査	-9.68747
可能性	-9.68756
倉	-9.68787
個	-9.6881
34	-9.68813
▁電話	-9.6882
誤り	-9.68839
彼	-9.68877
雑誌	-9.68916
材料	-9.68922
の方が	-9.69005
遊	-9.69019
▁に示す	-9.69045
ころ	-9.69065
売	-9.69069
壁	-9.69071
なければならない	-9.69089
深く	-9.69115
▁これ	-9.69128
周	-9.6913
庭	-9.69197
▁2011	-9.69228
工場	-9.69288
なんて	-9.69336
ゝ	-9.6938
農	-9.69424
ナー	-9.69518
エネルギー	-9.69571
~	-9.6963
株	-9.69753
レース	-9.69771
ヨ	-9.69788
▁Y	-9.69818
銀行	-9.69918
の様子	-9.69959
タン	-9.69964
デー	-9.69998
してゐる	-9.70029
不安	-9.70031
国家	-9.70054
▁17	-9.70079
旅行	-9.70156
最初の	-9.7029
スタッフ	-9.70315
編集	-9.70318
影	-9.70323
地震	-9.70346
満	-9.70402
順	-9.70421
アーカイブ	-9.70427
200	-9.70434
ワークショップ	-9.70488
行為	-9.70535
できます	-9.70564
出版	-9.70586
講師	-9.70589
事務局	-9.70646
▁Vol	-9.70691
記念	-9.70705
銀	-9.70731
機械	-9.70737
障害	-9.70762
」、「	-9.70948
最後の	-9.7096
自動	-9.70973
土地	-9.70983
あと	-9.70996
各種	-9.71048
."	-9.71051
機構	-9.71128
間に	-9.71135
位置	-9.71174
するために	-9.71218
ジュ	-9.71344
の間	-9.71349
あなた	-9.71363
られている	-9.7139
整備	-9.71428
中で	-9.71432
云った	-9.71432
オープン	-9.71438
発展	-9.71528
結婚	-9.71725
交通	-9.71749
問	-9.71951
通信	-9.71965
なければ	-9.72059
喜	-9.7208
背	-9.72104
09	-9.72106
胸	-9.72112
住宅	-9.7214
どのような	-9.72187
比	-9.72235
一方	-9.72239
視	-9.72241
▁(3)	-9.72241
必ず	-9.72291
まるで	-9.7235
et	-9.72353
48	-9.72397
領	-9.72497
その他	-9.72508
32	-9.72557
現代	-9.7258
減	-9.72595
虫	-9.72637
▁本研究では	-9.72657
らず	-9.72689
展開	-9.72722
の一部	-9.72752
インターネット	-9.72782
},	-9.72794
仏	-9.72858
の一	-9.7298
36	-9.73056
をお	-9.73148
500	-9.73182
比較	-9.73189
となります	-9.73265
乗	-9.73305
べき	-9.7332
研究者	-9.73321
打ち	-9.7335
オー	-9.73385
病気	-9.73388
発行	-9.73409
カード	-9.73467
アクセス	-9.73479
貴	-9.73482
抽出	-9.73494
▁13	-9.73504
近く	-9.73526
戦略	-9.73559
だよ	-9.73644
の上	-9.73646
ビル	-9.73665
処	-9.73779
道路	-9.73788
▁小	-9.73844
同年	-9.73868
大学院	-9.73871
38	-9.73873
サー	-9.73906
時代の	-9.73937
表示	-9.73965
どうして	-9.73981
▁すると	-9.74076
はず	-9.74089
望	-9.74092
03	-9.74185
罪	-9.7419
歯	-9.74192
よし	-9.74219
37	-9.74248
せん	-9.74278
などが	-9.743
これから	-9.74335
特徴	-9.74338
合い	-9.74349
ter	-9.74389
ch	-9.74419
出演	-9.74619
軽	-9.74743
実践	-9.74763
箱	-9.74775
記述	-9.74778
end	-9.74931
一部	-9.74986
ブル	-9.75006
▁ただ	-9.75048
の手	-9.75099
恋	-9.75116
などで	-9.75205
込んだ	-9.75237
穴	-9.75242
かん	-9.75249
多く	-9.75396
帯	-9.75475
彼女の	-9.75492
宝	-9.75526
術	-9.75538
man	-9.75558
傷	-9.75568
返	-9.75617
がありました	-9.75634
誰	-9.75707
跡	-9.75767
なんか	-9.75778
陽	-9.75888
落ち	-9.75896
福	-9.75932
したもの	-9.75966
事業者	-9.7599
調整	-9.76079
▁16	-9.76086
山の	-9.7614
移動	-9.76141
最大	-9.76183
▁de	-9.76271
どうも	-9.76365
ほとんど	-9.76372
実際に	-9.76414
もし	-9.76446
があって	-9.76491
限り	-9.76529
人を	-9.76579
ツアー	-9.76592
スター	-9.766
共同	-9.76662
そうです	-9.76663
今まで	-9.76695
結	-9.76697
介護	-9.76711
かどうか	-9.76713
予約	-9.76776
実習	-9.76785
かり	-9.76791
梅	-9.76844
mathbf	-9.7688
柳	-9.7692
ひとり	-9.76985
暮らし	-9.77087
歩	-9.77127
そうだ	-9.77187
集合	-9.77275
今後	-9.77293
語彙	-9.77312
布	-9.77346
枚	-9.77372
理論	-9.77373
――」	-9.77482
パー	-9.7758
広く	-9.776
as	-9.77708
研究室	-9.7772
筆	-9.77732
生徒	-9.77782
と一緒に	-9.77798
けど	-9.77801
設置	-9.7785
富	-9.77852
のであった	-9.7789
改革	-9.77926
岸	-9.77949
解説	-9.77956
法律	-9.77994
un	-9.78085
人気	-9.78134
▁15	-9.78201
弱	-9.78205
▁“	-9.78214
使	-9.78242
2019	-9.78269
健	-9.7831
帰	-9.78369
になると	-9.78375
りと	-9.78394
共	-9.78467
勉強	-9.78493
リンク	-9.78501
ですよ	-9.78524
何も	-9.78555
大臣	-9.7858
末	-9.78611
資格	-9.78628
が多い	-9.78667
逆	-9.78668
きて	-9.78679
の中	-9.78735
劇	-9.78795
基	-9.78817
でない	-9.78828
われ	-9.78927
桜	-9.78996
概要	-9.79008
場合には	-9.7905
やがて	-9.79199
患者	-9.79271
レス	-9.79322
急に	-9.7933
息	-9.79365
候	-9.79375
畑	-9.79395
浦	-9.794
忠	-9.79414
離	-9.79483
連絡	-9.79503
演奏	-9.79507
港	-9.79521
採用	-9.79564
と思った	-9.79576
立て	-9.79642
までの	-9.79653
要約	-9.79657
スコア	-9.79737
荒	-9.79779
ても	-9.79792
精	-9.79814
が多く	-9.7984
毎年	-9.79849
作家	-9.79855
つか	-9.79859
ur	-9.79924
休	-9.79944
やり	-9.79953
構成	-9.79977
耳	-9.79982
資源	-9.80026
ic	-9.80163
を行いました	-9.80195
介	-9.80294
何を	-9.80318
司	-9.80343
時は	-9.80414
づ	-9.80491
かつて	-9.80535
思想	-9.80604
×	-9.80629
基礎	-9.80635
盛	-9.80635
少年	-9.8067
▁\%$	-9.80691
されており	-9.80745
商	-9.80763
市の	-9.80777
飯	-9.80786
ぜひ	-9.80802
時期	-9.80813
性能	-9.8082
糸	-9.80822
▁14	-9.80837
倍	-9.80847
▁U	-9.80848
当時の	-9.80867
柄	-9.80938
辺	-9.80999
一日	-9.81033
全ての	-9.81077
39	-9.81207
別の	-9.81218
しても	-9.81222
美術	-9.81237
ファン	-9.81239
を見る	-9.81246
衣	-9.81256
▁2010	-9.81282
決して	-9.81297
かた	-9.8148
▁東京	-9.81507
提案	-9.81521
安心	-9.81523
著	-9.81553
はい	-9.81609
しばらく	-9.8166
念	-9.81664
ゐた	-9.81668
ていく	-9.81719
ここに	-9.81742
わが	-9.81778
km	-9.81841
アップ	-9.8187
応援	-9.81903
と呼ばれる	-9.8198
46	-9.82016
いつ	-9.8203
の下	-9.82047
を見た	-9.82253
☆	-9.82261
▁Q	-9.82314
退	-9.82393
ゆく	-9.82415
▁re	-9.82419
リア	-9.82422
まり	-9.82432
事故	-9.82445
コミュニケーション	-9.8247
ge	-9.82479
FC	-9.82496
発売	-9.82499
具	-9.82587
しよう	-9.82603
らぬ	-9.82636
▁一方	-9.82649
レポート	-9.82668
方は	-9.82714
規則	-9.82731
込む	-9.8274
▁その他	-9.8278
屋の	-9.8286
を使って	-9.82892
▁by	-9.82893
しき	-9.82904
エル	-9.8292
乱	-9.82922
コー	-9.8296
かね	-9.82981
手に	-9.83088
la	-9.83109
生命	-9.83163
振り	-9.83184
情報を	-9.83237
絶	-9.83276
を受けて	-9.83332
アート	-9.83359
由	-9.83395
かれ	-9.83435
によると	-9.83515
興味	-9.83538
li	-9.83548
可能	-9.83576
ユ	-9.83579
人と	-9.83616
以降	-9.83634
係	-9.83654
國	-9.83664
MB	-9.83694
秀	-9.83716
段階	-9.83734
事項	-9.83753
すでに	-9.83766
目を	-9.83794
▁新	-9.83809
週間	-9.8381
奴	-9.83843
コンテンツ	-9.83855
終	-9.83994
NPO	-9.84087
幅	-9.84095
現象	-9.84122
せず	-9.84187
大正	-9.84199
なった	-9.84203
彼女は	-9.84209
であるが	-9.84223
▁そのため	-9.84243
▁現在	-9.8428
際	-9.8434
選	-9.84448
てゐた	-9.84459
拡大	-9.84466
日まで	-9.84479
米国	-9.84505
インド	-9.8458
任	-9.84663
仁	-9.84667
博	-9.84672
球	-9.84691
関係者	-9.84697
工業	-9.84752
コーナー	-9.84814
58	-9.84865
掛	-9.84878
検証	-9.8488
マル	-9.84887
温	-9.84964
参	-9.84965
イギリス	-9.84975
管	-9.85055
気持ち	-9.85059
澤	-9.85096
-1	-9.85125
▁三	-9.85234
舞台	-9.85264
従	-9.8533
ずに	-9.85372
▁同年	-9.85373
苦	-9.85436
ヴァ	-9.85532
キー	-9.85569
神経	-9.85569
に向けた	-9.85575
地球	-9.85616
傾向	-9.85647
そこで	-9.85684
色の	-9.85698
発生	-9.85838
晩	-9.85903
までに	-9.85941
科目	-9.85942
也	-9.8599
▁特に	-9.86028
タイトル	-9.86044
医学	-9.86118
取り組み	-9.86119
(\	-9.86137
IC	-9.86138
柱	-9.86147
養	-9.86238
証	-9.86282
ときに	-9.86288
▁Li	-9.86298
君の	-9.86332
しております	-9.86338
を持ち	-9.86342
キャンパス	-9.86376
選挙	-9.86443
湖	-9.86453
デジタルアーカイブ	-9.86466
統計	-9.86508
自身	-9.86526
泉	-9.86537
責任	-9.86646
当日	-9.86681
るように	-9.86718
55	-9.86729
伊	-9.86744
陣	-9.8678
かも知れない	-9.86818
降	-9.86834
共通	-9.86867
を務めた	-9.86931
広告	-9.8708
名の	-9.87098
▁2024	-9.87146
金融	-9.87151
デビュー	-9.8716
発見	-9.87211
拠点	-9.87223
2018	-9.8729
自身の	-9.87366
制限	-9.87429
原因	-9.87446
するため	-9.87464
はこの	-9.87467
方針	-9.8747
最	-9.87489
運用	-9.87547
の内容	-9.8757
確率	-9.87611
冷	-9.87614
▁Re	-9.87633
それで	-9.87687
神社	-9.87689
まちづくり	-9.87706
かもしれない	-9.87771
窓口	-9.87861
これまで	-9.87891
寄	-9.879
製作	-9.87911
の一つ	-9.87933
部屋	-9.8794
であります	-9.87956
47	-9.88005
界	-9.88033
郷	-9.88059
化学	-9.88062
応答	-9.88067
逃げ	-9.88135
操作	-9.88197
文脈	-9.8823
ロン	-9.88265
殺	-9.88272
ライ	-9.88313
国内	-9.88319
月から	-9.88382
住	-9.88398
警察	-9.88403
力を	-9.88443
散	-9.88444
の活動	-9.88465
もあり	-9.88492
府	-9.88505
云う	-9.88539
向上	-9.88581
僕の	-9.88607
議員	-9.88607
油	-9.88608
アノテーション	-9.88609
コード	-9.88663
おい	-9.88677
といって	-9.88698
ッと	-9.88748
きました	-9.88762
つい	-9.88786
帰り	-9.88864
▁b	-9.88893
留	-9.88972
▁c	-9.89016
ああ	-9.89111
解決	-9.89123
敗	-9.89135
影響	-9.89193
紀	-9.89223
優勝	-9.89273
二人の	-9.89282
設備	-9.89294
投稿	-9.89322
先に	-9.89371
限定	-9.89406
然	-9.8942
トリ	-9.89455
の概要	-9.89459
なかなか	-9.89475
を表す	-9.89483
仲	-9.89547
突	-9.89559
2023	-9.89575
についても	-9.89588
第二	-9.89613
成功	-9.89653
▁as	-9.89663
営業	-9.89693
モン	-9.89698
na	-9.89747
注	-9.89765
と云ふ	-9.89897
公式	-9.89946
生き	-9.90036
栄	-9.90058
特	-9.90093
製造	-9.90111
氏の	-9.90202
うちに	-9.90205
あります	-9.90235
最高	-9.90245
te	-9.90281
大きい	-9.9029
▁～	-9.90319
訪問	-9.90336
ックス	-9.90403
辞書	-9.90415
ずつ	-9.90418
あら	-9.90423
婦人	-9.90434
やって	-9.90438
かなり	-9.9047
りました	-9.90481
高く	-9.90519
距離	-9.90567
重要	-9.9057
自分で	-9.90644
なんだ	-9.90652
q	-9.90652
▁{\	-9.90702
ent	-9.90813
露	-9.9083
実行	-9.9086
▁m	-9.90886
弟	-9.90929
になつて	-9.90997
ion	-9.9101
*	-9.91018
構築	-9.91053
彼が	-9.91115
印	-9.91117
に係る	-9.91146
積	-9.91183
紅	-9.91209
ルー	-9.91219
やすい	-9.91233
派遣	-9.91327
アイ	-9.9134
の問題	-9.91341
える	-9.91398
動き	-9.91424
shi	-9.91435
観察	-9.91458
となって	-9.91488
華	-9.91507
数は	-9.91548
▁International	-9.91693
みると	-9.91736
ir	-9.91741
の花	-9.91765
態度	-9.91793
ていない	-9.91801
44	-9.91877
あい	-9.91923
破	-9.91934
丁目	-9.91935
優	-9.91936
シン	-9.9195
ライブ	-9.92056
id	-9.92057
ko	-9.92091
今後の	-9.92122
html	-9.92129
観測	-9.92137
事務	-9.92186
されます	-9.92265
保護	-9.92284
学者	-9.92351
投	-9.92399
していない	-9.92443
にお	-9.92447
ガー	-9.92567
めた	-9.92635
音声	-9.92652
くれ	-9.92697
テスト	-9.92741
コミュニティ	-9.92771
基盤	-9.92773
暗	-9.92782
▁ところが	-9.92806
灯	-9.92918
思う	-9.92921
AI	-9.92938
練習	-9.92989
飛び	-9.92993
独立	-9.93009
物を	-9.93019
▁Ma	-9.9304
style	-9.93124
実現	-9.93146
ものと	-9.93192
il	-9.9322
想像	-9.93236
タイム	-9.93335
保険	-9.9338
▁X	-9.93396
みな	-9.93431
攻撃	-9.93466
兼	-9.93503
古い	-9.93568
追	-9.93652
世紀	-9.93709
ーン	-9.93714
建物	-9.93717
▁そんな	-9.93731
あらゆる	-9.93733
願	-9.93756
流れ	-9.93806
をしている	-9.93871
形で	-9.93902
最終	-9.93922
いよいよ	-9.94002
僕	-9.94044
だらう	-9.94071
▁それが	-9.94083
智	-9.9409
トップ	-9.94144
テン	-9.94154
失	-9.94163
▁TEL	-9.94166
年まで	-9.94168
公演	-9.94225
の中から	-9.9426
年齢	-9.94274
見える	-9.94377
手続き	-9.94384
やら	-9.94398
ジョン	-9.94405
フリー	-9.94417
違い	-9.94424
なさい	-9.94428
56	-9.94451
底	-9.94466
at	-9.9447
幕	-9.94473
のやうに	-9.94516
める	-9.94523
de	-9.94529
実は	-9.94587
報告書	-9.94658
茂	-9.94682
これが	-9.94741
将来	-9.94745
ける	-9.94793
ロシア	-9.94838
氏は	-9.94856
被	-9.9486
次郎	-9.94886
券	-9.94909
を行います	-9.94919
かえ	-9.9492
日本人	-9.94931
植物	-9.94975
II	-9.95054
応用	-9.95087
既に	-9.95163
房	-9.95198
成果	-9.95214
においても	-9.95218
取得	-9.95231
59	-9.95262
特定	-9.95265
せい	-9.95267
ときは	-9.95301
受け	-9.95337
飛	-9.95393
感染	-9.95394
心の	-9.95398
を用いる	-9.95415
たちは	-9.95494
東北	-9.95551
レイ	-9.95602
精度	-9.95623
できた	-9.95744
の前に	-9.95775
〉	-9.95818
弁	-9.95865
2017	-9.9592
其の	-9.9598
フェ	-9.96
腕	-9.96022
えて	-9.96035
CD	-9.96052
となりました	-9.96142
デン	-9.96162
負担	-9.96179
でき	-9.96249
プラン	-9.96274
シングル	-9.96312
と言う	-9.96382
57	-9.96389
300	-9.96422
基本	-9.96505
考えて	-9.96519
大きく	-9.96599
営	-9.96697
猫	-9.96722
下記	-9.96735
競技	-9.96748
純	-9.96753
友人	-9.96755
短	-9.96758
資金	-9.9683
してきた	-9.96844
やる	-9.96848
分割	-9.96945
協議会	-9.9695
統合	-9.96988
内で	-9.97026
メートル	-9.97071
再生	-9.97098
▁4.	-9.971
遠く	-9.97111
陰	-9.97124
周辺	-9.97124
なき	-9.97128
の歴史	-9.97166
見学	-9.97192
じゃない	-9.97197
週	-9.97231
かかる	-9.97232
利用者	-9.97269
送	-9.9727
とう	-9.97284
でしょうか	-9.97319
概念	-9.97327
脚	-9.9733
振	-9.97333
頼	-9.97508
姉	-9.97576
ついて	-9.97599
ハン	-9.97603
da	-9.97615
49	-9.97638
IT	-9.97645
なあ	-9.97671
沖縄	-9.97785
いって	-9.97829
々と	-9.97845
サイズ	-9.97865
pdf	-9.97876
高齢者	-9.97887
費用	-9.97891
平和	-9.97916
被害	-9.97935
ではないか	-9.97969
配	-9.98
の声	-9.98007
▁株式会社	-9.98034
疾患	-9.9808
鬼	-9.98106
を考える	-9.98108
参考	-9.98118
記憶	-9.98164
規定	-9.98175
をはじめ	-9.98182
43	-9.98203
反対	-9.98212
是非	-9.9824
防	-9.98273
スタート	-9.98358
漢	-9.98381
と思って	-9.98382
超	-9.98396
ランド	-9.9844
パリ	-9.98521
、――	-9.98538
刀	-9.98538
口を	-9.9859
甲	-9.98633
新たに	-9.9874
などは	-9.9876
密	-9.98894
必要な	-9.98906
泊	-9.98955
やう	-9.98981
2021	-9.98983
装置	-9.99005
日間	-9.99034
劇場	-9.99035
▁つの	-9.99041
心を	-9.99109
今の	-9.99147
興	-9.9917
知らない	-9.99233
に関して	-9.99376
棟	-9.99449
用語	-9.9947
〕	-9.99504
霊	-9.99505
別に	-9.99519
書類	-9.9954
ヨーロッパ	-9.99541
目の	-9.99598
価値	-9.99708
申込	-9.99738
の開発	-10.0001
カテゴリ	-10.0001
2016	-10.0007
老人	-10.0009
▁20	-10.0014
与	-10.0024
三郎	-10.0026
解釈	-10.0029
奇	-10.003
ヴ	-10.0035
表記	-10.0037
トークン	-10.004
教会	-10.0041
看護	-10.0043
なん	-10.0049
ry	-10.0054
が高い	-10.0058
兵衛	-10.0062
事情	-10.0068
出来	-10.0071
カラ	-10.0073
市立	-10.0076
ビー	-10.0081
現地	-10.0081
提出	-10.0081
モデルの	-10.0089
ふと	-10.0095
物質	-10.0095
至	-10.0101
▁2009	-10.0102
防止	-10.0104
建	-10.0106
ra	-10.0107
あって	-10.0108
策	-10.011
年代	-10.0114
レベル	-10.0115
聞き	-10.0116
ここ	-10.0119
務	-10.0119
{\	-10.012
隆	-10.0122
65	-10.0123
ライン	-10.0126
此の	-10.0126
ブログ	-10.0126
創造	-10.0128
静	-10.0134
人生	-10.0134
PR	-10.0138
印刷	-10.0139
推論	-10.0141
ようです	-10.0142
ul	-10.0162
ad	-10.0166
-2	-10.0174
便	-10.0177
初の	-10.0177
ホーム	-10.0191
例えば	-10.0193
の意味	-10.0193
にあった	-10.0198
現場	-10.021
遊び	-10.0211
好い	-10.0215
雇用	-10.0218
一時	-10.0227
me	-10.0227
はまだ	-10.0229
必要がある	-10.0229
高校生	-10.0231
▁文	-10.0236
▁同	-10.0241
購入	-10.0246
しさ	-10.0247
▁まず	-10.0248
話題	-10.0248
てしまった	-10.0248
工学	-10.0248
龍	-10.0251
依頼	-10.0256
42	-10.0256
痛	-10.0258
まま	-10.026
知事	-10.0264
ブラ	-10.0264
ガン	-10.0267
学術	-10.0271
盤	-10.0272
時から	-10.0276
食品	-10.0277
▁from	-10.0284
ですから	-10.0286
家に	-10.0287
様式	-10.0289
▁that	-10.0292
おお	-10.0295
沼	-10.0296
つけて	-10.03
許可	-10.03
覚	-10.0304
公表	-10.0307
国立	-10.0308
の話	-10.031
方向	-10.0314
バル	-10.0315
なぜ	-10.0321
強化	-10.0327
一郎	-10.0329
属	-10.0329
多様な	-10.033
に於て	-10.0332
動詞	-10.0338
キャリア	-10.0342
押し	-10.0346
ki	-10.0353
九州	-10.0355
(1	-10.0361
いずれも	-10.0362
焼	-10.0369
仲間	-10.0369
過去	-10.037
広報	-10.0372
バンド	-10.0379
display	-10.0383
美術館	-10.0384
独	-10.0386
男子	-10.0389
砂	-10.0391
診療	-10.0395
獲得	-10.0395
なくなった	-10.0398
読	-10.0405
ゼミ	-10.0407
ive	-10.0421
投資	-10.0422
追加	-10.0428
ール	-10.0429
哲学	-10.0429
ia	-10.0434
接	-10.0436
申	-10.0437
反応	-10.0438
社員	-10.0442
緑	-10.0442
文の	-10.0443
人材	-10.0456
ミニ	-10.0459
レー	-10.046
バン	-10.0463
こども	-10.0468
ルール	-10.0471
operatorname	-10.0473
ったり	-10.0476
族	-10.0477
月号	-10.0479
昔	-10.0482
であったが	-10.0484
予算	-10.0485
▁Processing	-10.0487
▁language	-10.049
氷	-10.0499
▁だから	-10.0499
教師	-10.0499
地元	-10.0504
HP	-10.0507
うる	-10.0507
変換	-10.0513
セン	-10.0519
世界の	-10.0521
75	-10.0521
についての	-10.0524
▁東京都	-10.0525
チェ	-10.0526
気持	-10.0531
受	-10.0538
同時に	-10.0538
ついた	-10.0538
54	-10.054
であること	-10.0541
歩いて	-10.0541
その時	-10.0542
▁つまり	-10.0543
あたし	-10.0545
限	-10.0545
面白い	-10.0548
登	-10.055
三十	-10.0551
継続	-10.0552
するための	-10.0553
祝	-10.0562
のことを	-10.0569
ab	-10.0586
十分	-10.0587
を見ると	-10.0587
背景	-10.0589
オリジナル	-10.0597
は何	-10.0601
正解	-10.0604
▁ここで	-10.0604
日程	-10.0616
メン	-10.0618
▁}	-10.0621
その他の	-10.0622
整理	-10.0625
に基づき	-10.0629
坊	-10.063
見え	-10.0631
▁僕は	-10.0633
そうに	-10.0638
るもの	-10.0641
押	-10.0645
保健	-10.0648
思ひ	-10.0648
令	-10.0648
集団	-10.065
車両	-10.0652
寒	-10.0656
附	-10.0656
通常	-10.0656
修	-10.0656
みた	-10.0657
方の	-10.0658
市町村	-10.0658
症	-10.0673
向き	-10.0673
実に	-10.0674
(1)	-10.0675
チェック	-10.0676
働き	-10.0678
きり	-10.0679
野菜	-10.068
クロ	-10.0681
シンポジウム	-10.0682
軒	-10.0689
空気	-10.069
エリア	-10.069
移住	-10.069
キャラクター	-10.0693
舟	-10.0693
結合	-10.0696
したこと	-10.0704
印象	-10.0707
冠	-10.0707
議	-10.0709
ほどの	-10.0711
の下に	-10.0714
の場合は	-10.0719
分布	-10.073
ガス	-10.073
箇所	-10.0736
納	-10.0743
手紙	-10.0746
鏡	-10.0748
等を	-10.0748
データベース	-10.0752
笑い	-10.0753
ine	-10.0755
乗り	-10.0756
社長	-10.0763
関数	-10.0764
マイ	-10.0765
捕	-10.0765
自治体	-10.0765
▁★	-10.077
判	-10.0779
長く	-10.0794
大学の	-10.0796
が必要です	-10.0796
新規	-10.0797
の皆さん	-10.0798
けん	-10.0803
事は	-10.0807
スタ	-10.0807
勇	-10.0808
▁FAX	-10.0811
などに	-10.0814
照	-10.0817
▁2008	-10.0818
まとめ	-10.082
屋敷	-10.082
症状	-10.0825
と思われる	-10.0827
則	-10.0828
枠	-10.0828
2015	-10.0829
圧	-10.0833
語り	-10.0835
孝	-10.0838
生物	-10.0839
袋	-10.0841
行う	-10.0841
一体	-10.0844
すっかり	-10.085
画家	-10.0854
一致	-10.0857
域	-10.0862
己	-10.0867
ざる	-10.0871
思	-10.0871
名前	-10.0875
▁さて	-10.0875
発言	-10.0875
黒い	-10.0877
入学	-10.0883
共有	-10.0884
88	-10.0885
フル	-10.0886
常に	-10.0895
はじめ	-10.0895
弘	-10.0898
様に	-10.0902
かわ	-10.0904
拡張	-10.0906
定義	-10.0906
帝	-10.0908
の関係	-10.0909
つてゐた	-10.0909
促進	-10.0911
ダウンロード	-10.0911
つまり	-10.0912
堀	-10.0913
らん	-10.0917
事前	-10.092
イメージ	-10.0922
いだ	-10.0923
姫	-10.0928
綱	-10.093
ゆる	-10.0937
日には	-10.0938
ロボット	-10.0939
ここで	-10.094
育成	-10.0942
ダイ	-10.0943
或る	-10.0944
ぐらい	-10.0945
取引	-10.0948
こういう	-10.0948
ニュー	-10.0949
ともに	-10.0957
会話	-10.0958
店舗	-10.096
85	-10.0961
CO	-10.0965
夫婦	-10.0965
を以て	-10.0969
そば	-10.097
不足	-10.0972
算	-10.0975
髪	-10.0975
肩	-10.0976
▁そうして	-10.0979
ていました	-10.098
來	-10.0985
てしまう	-10.0985
タイプ	-10.099
いただき	-10.0991
改	-10.1
料金	-10.1006
お前	-10.1006
であって	-10.1008
子さん	-10.1008
技	-10.1008
mm	-10.1009
きっと	-10.101
報道	-10.1019
としている	-10.102
の方に	-10.1025
複数	-10.1026
が必要	-10.1027
ate	-10.103
午前	-10.103
太陽	-10.1031
腰	-10.1032
じゃないか	-10.1038
けた	-10.1039
ダンス	-10.1042
ウス	-10.1045
避難	-10.1045
挨拶	-10.105
人口	-10.1053
全て	-10.106
本部	-10.106
67	-10.1061
の評価	-10.1069
%	-10.1069
突然	-10.107
ru	-10.1071
を受ける	-10.1081
それらの	-10.1083
下の	-10.1084
気に	-10.1084
の御	-10.1085
ぶり	-10.1085
外国人	-10.1087
適切な	-10.109
賀	-10.1091
▁それに	-10.1106
脱	-10.1107
制御	-10.111
ol	-10.1111
丘	-10.1112
このような	-10.1116
収集	-10.1117
用の	-10.1118
あなたの	-10.1118
設立	-10.112
研究会	-10.1126
声を	-10.1131
次元	-10.1131
検出	-10.1133
診断	-10.1134
なども	-10.1138
敬	-10.1144
セル	-10.1145
遺伝子	-10.1153
困難	-10.1158
可能な	-10.1159
予防	-10.1161
}}	-10.1162
臣	-10.1168
はもう	-10.1169
の家	-10.1169
孫	-10.1171
俊	-10.1173
雑	-10.1175
魂	-10.1185
乳	-10.1185
であれば	-10.1186
様子	-10.1188
▁v	-10.1189
さし	-10.1196
努力	-10.1203
▁n	-10.1207
横浜	-10.121
cm	-10.1211
軸	-10.1215
言語モデル	-10.1216
されていない	-10.122
射	-10.1228
部長	-10.1229
でもある	-10.1231
することができる	-10.1231
ウィ	-10.1232
杉	-10.1232
ドメイン	-10.1233
トラ	-10.1235
子育て	-10.1239
補助	-10.1241
age	-10.1241
普通	-10.125
導入	-10.1254
中間	-10.1256
竜	-10.1258
大人	-10.1259
クラ	-10.1261
けて	-10.1266
mi	-10.1267
のだが	-10.1273
になつた	-10.1274
塚	-10.1275
韓国	-10.1275
キャ	-10.1276
好きな	-10.1277
留学	-10.1279
分の	-10.1284
ka	-10.1285
に基づいて	-10.1286
判定	-10.1292
からも	-10.1295
クリ	-10.1297
鶴	-10.1298
ヲ	-10.1298
黄	-10.1309
mail	-10.1311
画面	-10.1312
ドル	-10.1318
辞	-10.1318
であらう	-10.132
ジョ	-10.1324
証明書	-10.1325
▁それで	-10.1326
方面	-10.1327
好き	-10.1333
はありません	-10.1333
ちょうど	-10.1339
網	-10.1344
ども	-10.1345
具体的な	-10.1346
取組	-10.1347
題	-10.1347
主に	-10.1349
ang	-10.135
勝利	-10.1352
阿	-10.1352
試	-10.1356
名を	-10.1356
メッセージ	-10.1357
ie	-10.136
ツール	-10.1363
少女	-10.1364
可能性がある	-10.1366
勤務	-10.1367
ラジオ	-10.1372
うまく	-10.1374
▁model	-10.1375
▁[1]	-10.1376
を開催しました	-10.1381
接続	-10.1383
▁we	-10.1385
修正	-10.1387
2000	-10.1387
えた	-10.1394
68	-10.1395
約束	-10.1395
どうぞ	-10.1399
果	-10.1402
食事	-10.1408
一人の	-10.1412
銭	-10.1413
毒	-10.1416
の世界	-10.1417
しゃ	-10.142
塔	-10.1421
を対象に	-10.1421
にかけて	-10.1422
社会的	-10.1428
男は	-10.1433
閲覧	-10.1434
私に	-10.1436
景	-10.1439
完成	-10.1439
オリンピック	-10.1442
の生活	-10.1442
むしろ	-10.1446
粉	-10.145
ができる	-10.1452
卵	-10.1457
かけて	-10.1459
聞いて	-10.146
64	-10.1461
いで	-10.1462
るべき	-10.1465
記載	-10.1466
潮	-10.1466
值	-10.1477
止	-10.1478
たが	-10.1478
元気	-10.1481
ケース	-10.1481
菜	-10.1484
(2)	-10.1485
人々	-10.1488
唯	-10.1497
分け	-10.1498
▁ホーム	-10.1499
ドン	-10.15
名古屋	-10.1501
▁次に	-10.1502
あげ	-10.1508
億	-10.151
先生の	-10.1518
だけは	-10.1519
尚	-10.1521
からだ	-10.1525
妹	-10.1526
ss	-10.1527
やった	-10.1529
出る	-10.153
標準	-10.1532
誤	-10.1534
のもの	-10.1539
▁彼女は	-10.1545
スペース	-10.1546
今は	-10.1548
土曜日	-10.1552
▁今回の	-10.1553
当該	-10.1554
オン	-10.1556
mo	-10.1556
活躍	-10.1559
スーパー	-10.1564
酸	-10.1565
を行っている	-10.1565
ベクトル	-10.1572
▁e	-10.1574
測定	-10.1577
略	-10.1583
共に	-10.1583
主催	-10.1588
im	-10.1595
菊	-10.1598
申し	-10.1598
^{	-10.1607
心に	-10.1607
発信	-10.1608
二つ	-10.1608
の変化	-10.1611
男女	-10.1613
▁モデル	-10.1613
就職	-10.1613
41	-10.1622
ようになった	-10.1629
どうか	-10.163
規制	-10.1639
死んだ	-10.1639
ヶ月	-10.1642
ありがとうございました	-10.1643
相手	-10.1646
のお知らせ	-10.1649
ほぼ	-10.1649
身を	-10.165
過程	-10.1653
カフェ	-10.1654
ステージ	-10.1655
装	-10.1658
初期	-10.166
nd	-10.1661
しまった	-10.1661
ji	-10.1665
舞	-10.1665
身に	-10.1665
いろいろな	-10.1665
出て	-10.1666
の方は	-10.1668
ドラマ	-10.1671
いゝ	-10.1673
震災	-10.1674
映	-10.1674
いただいた	-10.1675
2022	-10.1677
ります	-10.1678
核	-10.1678
発達	-10.1683
BERT	-10.1684
日曜日	-10.1685
文献	-10.1685
手順	-10.1689
ありません	-10.1695
の利用	-10.1695
月には	-10.17
の後	-10.1701
▁are	-10.1702
することが	-10.1704
まった	-10.1705
ジー	-10.1707
der	-10.1707
時々	-10.1712
過ぎ	-10.1712
民間	-10.1713
しん	-10.1713
どうしても	-10.1717
羅	-10.172
The	-10.1721
人も	-10.1725
しょう	-10.1729
狂	-10.173
中止	-10.1734
工夫	-10.174
風に	-10.1744
いわゆる	-10.1744
に近い	-10.1747
行事	-10.1749
するもの	-10.1749
撃	-10.1756
給	-10.1762
一本	-10.1762
価	-10.1765
隠	-10.1767
と言って	-10.177
son	-10.177
道を	-10.1771
1)	-10.1772
なもの	-10.1772
改正	-10.1773
棒	-10.1778
に関すること	-10.1778
試み	-10.178
即ち	-10.1783
宗教	-10.1784
広い	-10.1786
2014	-10.1792
もしくは	-10.1794
ごと	-10.1794
講演会	-10.1796
途中	-10.1801
子が	-10.1801
▁もし	-10.1805
悪い	-10.1807
礼	-10.1808
53	-10.181
こちら	-10.1812
私も	-10.1817
強く	-10.1818
▁Natural	-10.1822
始め	-10.1824
ペン	-10.1825
旗	-10.1826
エコ	-10.1827
緊急	-10.183
旨	-10.1831
の高い	-10.1832
住所	-10.1833
▁二	-10.1834
村の	-10.1838
を目指す	-10.184
説明会	-10.1848
聞く	-10.1849
世代	-10.185
のほか	-10.1851
神戸	-10.1851
んでいる	-10.1854
たちの	-10.1854
全体の	-10.1856
鳴	-10.1858
99	-10.1861
て来た	-10.1864
話し	-10.1869
運転	-10.1873
ハウス	-10.1873
ゲン	-10.1873
ist	-10.1878
かう	-10.1879
浪	-10.188
雅	-10.1883
運	-10.1883
役割	-10.1887
楽しい	-10.1887
合う	-10.1889
唐	-10.1889
市内	-10.1892
彼女	-10.1899
晴	-10.1899
育	-10.1901
▁このような	-10.1902
コスト	-10.1904
人形	-10.1908
仕事を	-10.1916
特定の	-10.1918
言って	-10.192
▁2007	-10.192
やま	-10.1924
兄弟	-10.194
の娘	-10.1942
ブランド	-10.1942
半分	-10.1945
と同時に	-10.1946
立って	-10.1946
大統領	-10.1948
絵本	-10.1949
ワン	-10.195
掛け	-10.1951
の如く	-10.1952
投げ	-10.1955
医療機関	-10.1973
▁2019.	-10.1976
いただく	-10.1978
使い	-10.1979
次第	-10.1982
やっぱり	-10.1982
52	-10.1984
実際	-10.1984
敷	-10.1984
近い	-10.1986
仙	-10.1987
万人	-10.199
方式	-10.199
煙	-10.1999
上位	-10.2002
なるほど	-10.2003
2)	-10.2015
親分	-10.2015
張り	-10.2017
たま	-10.2019
かと	-10.2024
男の	-10.2025
→	-10.2025
ian	-10.2027
境	-10.203
を行っています	-10.2032
検	-10.2033
66	-10.2035
組合	-10.2036
事前に	-10.2038
パターン	-10.2043
ずっと	-10.2043
航空	-10.2044
談	-10.2044
られない	-10.2045
たちが	-10.205
吾	-10.2051
指示	-10.2051
チン	-10.2052
条例	-10.2052
ということで	-10.2053
置いて	-10.2057
バイ	-10.2057
に加え	-10.2062
正しい	-10.2065
単	-10.2067
の方々	-10.2068
わからない	-10.2072
協定	-10.2073
配布	-10.2073
ソフト	-10.2078
眞	-10.2079
思い出	-10.2081
サイ	-10.2084
之助	-10.2091
sa	-10.2092
のご案内	-10.2095
グル	-10.2097
たか	-10.2097
決	-10.2099
パラメータ	-10.21
眠	-10.2101
疑	-10.2102
ゐ	-10.2109
77	-10.2111
福島	-10.212
そのもの	-10.2122
400	-10.2123
これも	-10.2123
保護者	-10.2129
かつた	-10.2131
確保	-10.2132
ケア	-10.2137
みる	-10.2137
サッカー	-10.2137
統一	-10.2138
僧	-10.214
今日は	-10.2143
プラ	-10.2151
ようと	-10.2152
足を	-10.2156
職業	-10.2157
赤い	-10.2157
したら	-10.2157
浮	-10.2157
ことになる	-10.216
によれば	-10.2163
流行	-10.2166
69	-10.2169
習	-10.2171
動作	-10.2171
ええ	-10.2173
頭を	-10.2173
籠	-10.2175
今回の	-10.2175
の音	-10.2176
ものか	-10.2177
地図	-10.2177
措置	-10.2178
ニア	-10.2186
切れ	-10.2186
キン	-10.2189
さが	-10.2191
仰	-10.2191
福島県	-10.2192
暮	-10.2195
グラフ	-10.2205
ぢや	-10.2205
若者	-10.2207
とり	-10.2212
現実	-10.2215
答え	-10.2216
頻度	-10.2217
ブリ	-10.2223
低い	-10.2227
小屋	-10.2228
ho	-10.2228
施策	-10.223
でせう	-10.2233
▁an	-10.2234
ha	-10.2239
▁あの	-10.224
芸	-10.224
改めて	-10.2243
皮	-10.2244
様な	-10.2246
危険	-10.2247
ヴェ	-10.2262
夫人	-10.2264
用意	-10.2267
78	-10.2268
ライフ	-10.2269
クス	-10.227
わし	-10.227
満足	-10.2271
63	-10.2277
泣き	-10.2277
お母さん	-10.2281
の構築	-10.2281
昼	-10.2284
ダン	-10.2288
リーダー	-10.229
外部	-10.2291
▁(4)	-10.2293
▁日時	-10.2294
を得	-10.2294
交付	-10.2297
犯罪	-10.2302
ませんでした	-10.2307
イタリア	-10.2309
故	-10.2313
票	-10.2315
ッド	-10.2316
▁d	-10.2317
▁2020.	-10.2318
log	-10.2319
引用	-10.232
活	-10.2321
スタイル	-10.2325
思った	-10.2327
後は	-10.2327
を有する	-10.2333
カメラ	-10.2335
るような	-10.2335
何の	-10.2336
グローバル	-10.2338
吹	-10.234
ell	-10.2346
たくさんの	-10.2346
投票	-10.2348
財政	-10.2348
▁be	-10.2348
に伴い	-10.2349
MA	-10.235
▁もう	-10.235
形態	-10.2353
どうした	-10.2354
ひとつ	-10.2356
要求	-10.2358
二つの	-10.2359
収録	-10.2367
本人	-10.2371
刺	-10.2374
待ち	-10.2378
だい	-10.238
に含まれる	-10.2382
もあった	-10.2387
本学	-10.2388
提案手法	-10.2388
▁[2]	-10.2391
不思議	-10.2392
2013	-10.2393
負	-10.2396
表彰	-10.2396
護	-10.2397
広場	-10.2398
受講	-10.2403
遺	-10.241
を利用した	-10.241
駒	-10.2411
将	-10.2415
51	-10.2417
ity	-10.2418
76	-10.2423
ちゃ	-10.2425
機器	-10.2432
明日	-10.2434
刻	-10.2435
多い	-10.2435
郎	-10.2435
相互	-10.2437
に必要な	-10.2444
結局	-10.2446
会計	-10.2447
おく	-10.245
典	-10.2456
演習	-10.2458
89	-10.2458
出来る	-10.2466
奈	-10.2467
示	-10.2468
鹿	-10.2469
はじめて	-10.2469
アフリカ	-10.2473
取材	-10.2476
人権	-10.2477
近代	-10.2477
ッシュ	-10.2487
しましょう	-10.2491
得る	-10.2492
業者	-10.2493
長期	-10.2495
いろいろ	-10.2497
属性	-10.2502
承認	-10.2508
一寸	-10.2513
ものに	-10.2516
今度は	-10.2516
側の	-10.2518
裕	-10.2519
際に	-10.252
することは	-10.2525
厳	-10.2529
外国	-10.2535
ましたが	-10.2536
インタビュー	-10.2538
um	-10.2542
交渉	-10.2542
持って	-10.2543
すなわち	-10.2545
ハー	-10.2545
否	-10.2546
詞	-10.255
性格	-10.2551
もあります	-10.2553
っています	-10.2553
是	-10.2553
の影響	-10.2558
剤	-10.256
アニメ	-10.2565
著者	-10.2565
▁De	-10.2574
▁お知らせ	-10.2574
人たち	-10.2576
要因	-10.2576
男が	-10.2578
ウイルス	-10.2579
批判	-10.2582
こうした	-10.2583
民族	-10.2583
sum	-10.2583
ローマ	-10.2586
ment	-10.2588
手術	-10.259
87	-10.2592
伴	-10.2592
なのだ	-10.2595
86	-10.2597
▁会場	-10.2613
プレ	-10.2616
お知らせ	-10.2617
とされる	-10.2617
ヶ	-10.2618
るか	-10.2619
初め	-10.262
廻	-10.262
夜の	-10.2622
どのように	-10.2622
ことである	-10.2627
付与	-10.2627
ゆき	-10.2628
走り	-10.263
食べ	-10.2632
▁[3]	-10.2632
ところに	-10.2633
bo	-10.2636
アプリ	-10.264
閉	-10.2652
▁t	-10.2653
▁An	-10.2654
請求	-10.2658
っこ	-10.2662
例の	-10.2663
帝国	-10.2665
▁今回は	-10.2668
ひろ	-10.267
さない	-10.2671
ノー	-10.2677
焼き	-10.268
コンサート	-10.2683
に関しては	-10.2683
適用	-10.2687
て居る	-10.2692
物の	-10.2693
なのか	-10.2693
am	-10.2694
世の	-10.2696
学ぶ	-10.2705
種類	-10.2709
されること	-10.271
宇	-10.271
荷	-10.2711
の向上	-10.2711
立つ	-10.2712
追い	-10.2715
これに	-10.2716
全部	-10.2721
誰も	-10.273
自分は	-10.2733
申し込み	-10.2734
ユーザ	-10.2735
延	-10.2738
に出	-10.2741
ボール	-10.2741
と思ふ	-10.2746
いている	-10.2747
}^{\	-10.275
一層	-10.275
ut	-10.2751
わたし	-10.2752
しなかった	-10.2762
うつ	-10.2765
ジャパン	-10.2768
前後	-10.2772
部の	-10.2774
主体	-10.2775
のうちに	-10.2776
激	-10.2782
人々の	-10.2783
なって	-10.2784
いたしました	-10.2788
たく	-10.2788
文法	-10.2789
吉は	-10.2793
ロック	-10.2793
十二	-10.2795
ロンドン	-10.2796
の仕事	-10.28
創	-10.2802
の情報	-10.2805
障害者	-10.281
海岸	-10.281
だけの	-10.2814
,「	-10.2815
関東	-10.2819
品質	-10.282
▁けれども	-10.2825
五郎	-10.2825
こともある	-10.2828
恵	-10.2828
企業の	-10.2829
廃	-10.283
あんな	-10.283
に行く	-10.2831
を作る	-10.2831
ザー	-10.2832
歩き	-10.2834
女房	-10.2834
ことができます	-10.2834
を表	-10.2837
ーズ	-10.2839
駐車場	-10.284
受賞	-10.284
収	-10.2841
mid	-10.2842
EC	-10.2846
ないこと	-10.2851
ひどく	-10.2853
交換	-10.2853
業界	-10.2859
去	-10.2861
相当	-10.2865
事が	-10.2868
剣	-10.2873
証明	-10.2874
の特徴	-10.288
の名	-10.2882
儀	-10.2882
単に	-10.2883
図書	-10.2887
さんに	-10.2891
ベース	-10.2897
翌	-10.29
電車	-10.2904
ピー	-10.2906
進行	-10.2908
選考	-10.291
益	-10.2912
俳優	-10.2912
滝	-10.2913
話を	-10.2917
まえ	-10.2917
頬	-10.2917
スペイン	-10.2919
分子	-10.2922
せて	-10.2924
の小	-10.2926
疑問	-10.2929
実績	-10.2929
書いて	-10.293
権利	-10.293
95	-10.2937
たくさん	-10.2938
上記	-10.294
さあ	-10.2945
パーク	-10.2947
圏	-10.2952
隣	-10.2955
評	-10.2956
広島	-10.2963
の各	-10.2965
パス	-10.2965
}_{\	-10.2965
74	-10.2965
の違い	-10.2966
酔	-10.2967
を使った	-10.297
まったく	-10.2971
乾	-10.2976
さき	-10.2976
テル	-10.298
の例	-10.2982
君が	-10.2988
感覚	-10.299
マーク	-10.2993
を得た	-10.2998
父の	-10.3002
藩	-10.3004
モー	-10.3007
速	-10.3013
-19	-10.3015
ッツ	-10.302
不思議な	-10.3021
冊	-10.3023
所に	-10.3027
出た	-10.3028
進んで	-10.3028
素性	-10.3031
第三	-10.3032
ご利用	-10.3034
を得る	-10.3038
しかも	-10.3041
本作	-10.3044
詳しく	-10.3044
いただきました	-10.3052
ピアノ	-10.306
スタジオ	-10.3062
からである	-10.3062
研	-10.3073
▁Sa	-10.3073
聞いた	-10.3075
いかに	-10.3075
の推進	-10.3078
▁Z	-10.3078
の作成	-10.308
義務	-10.3084
を求める	-10.3085
姿を	-10.3087
yo	-10.3087
に応じて	-10.3097
キーワード	-10.3097
比較的	-10.3101
芝居	-10.3102
ソー	-10.3102
委員長	-10.3105
ya	-10.3111
までは	-10.3111
見れば	-10.3112
ers	-10.3114
置き	-10.3123
つけた	-10.3127
▁[4]	-10.3127
が行われた	-10.3128
没	-10.3128
61	-10.313
チャレンジ	-10.3132
を持っている	-10.3133
パラ	-10.3135
ということは	-10.3142
もまた	-10.3145
友達	-10.3148
卒	-10.3149
名詞	-10.3151
供給	-10.3157
ni	-10.3164
▁x	-10.3167
貞	-10.3171
材	-10.3172
迫	-10.3175
声が	-10.3176
私たち	-10.3181
が存在する	-10.3182
を利用する	-10.3184
イル	-10.3187
あて	-10.3188
でしたが	-10.3189
79	-10.3191
ダム	-10.3193
lo	-10.3196
道具	-10.3196
指標	-10.3201
三人	-10.3202
タグ	-10.3203
▁◇	-10.3204
亀	-10.3209
ためには	-10.3209
名は	-10.3211
DA	-10.3212
▁Ro	-10.3214
極めて	-10.3214
安定	-10.3215
証拠	-10.3218
ard	-10.3219
負け	-10.322
やつ	-10.322
合同	-10.3221
輝	-10.3227
弥	-10.3228
注目	-10.3231
TV	-10.3235
栄養	-10.3238
考える	-10.324
浅	-10.3242
フォーラム	-10.3244
を開催	-10.3244
考察	-10.3247
番地	-10.325
有効	-10.325
かけた	-10.3251
子どもの	-10.3251
と同様に	-10.3252
机	-10.3253
実際の	-10.3254
最後に	-10.3254
金曜日	-10.3256
ビデオ	-10.3257
内部	-10.3257
をご覧ください	-10.3258
田舎	-10.3258
伯	-10.3262
▁arXiv	-10.3264
季節	-10.3266
▁日本語	-10.3266
〈	-10.327
俺	-10.3271
袖	-10.3274
▁We	-10.3275
売り	-10.328
範囲	-10.3283
すら	-10.3283
ミー	-10.3284
肌	-10.3284
していました	-10.3287
é	-10.3291
感染症	-10.3292
のまま	-10.3292
の事	-10.3293
方々	-10.3296
墓	-10.33
が行われ	-10.33
泰	-10.3301
始めた	-10.3304
らせ	-10.3305
寛	-10.3306
衆	-10.3306
トー	-10.3308
時まで	-10.3308
することを	-10.3309
屋根	-10.3309
系列	-10.331
^{\	-10.3311
▁Japanese	-10.3313
ver	-10.3316
した場合	-10.3321
のであります	-10.3322
ベスト	-10.3323
まれ	-10.3324
先生は	-10.3326
io	-10.333
だした	-10.3331
だったが	-10.3333
ill	-10.3336
きょう	-10.3336
置	-10.3338
ba	-10.3339
日時	-10.3349
▁ア	-10.3349
Web	-10.335
沢山	-10.335
銃	-10.3351
CA	-10.3353
暗い	-10.3356
の開催	-10.3358
助成	-10.3359
台湾	-10.3361
98	-10.3368
河川	-10.3369
84	-10.3373
おう	-10.3379
おき	-10.338
栗	-10.3381
というもの	-10.3381
快	-10.3382
スクール	-10.3384
いき	-10.3386
区域	-10.3388
専門家	-10.3393
くなった	-10.3393
魅力	-10.3393
電力	-10.3395
飲み	-10.3395
mu	-10.3397
スキー	-10.3398
福岡	-10.34
現状	-10.3402
賢	-10.3404
襲	-10.3406
の実施	-10.3407
62	-10.3409
を利用して	-10.3415
関心	-10.3418
女は	-10.3429
皆さん	-10.3435
推薦	-10.3437
みんなで	-10.3442
SA	-10.3449
制約	-10.3449
少	-10.345
ことだ	-10.3451
ドゥ	-10.3455
芳	-10.3456
性の	-10.3459
恩	-10.3469
こんで	-10.347
無理	-10.3475
のみならず	-10.3475
幸福	-10.3477
ベン	-10.348
禁止	-10.3484
麻	-10.3484
だんだん	-10.3486
▁[5]	-10.3486
を使用した	-10.3487
欠	-10.3489
いくら	-10.349
ランキング	-10.3494
形成	-10.3495
否定	-10.35
杯	-10.3503
ゾ	-10.3505
を作り	-10.3505
▁To	-10.3506
最初に	-10.3508
トロ	-10.3511
整	-10.3513
さへ	-10.3515
応	-10.3518
主張	-10.352
▁2006	-10.3521
でもない	-10.3522
ことにより	-10.3522
よかった	-10.3523
ティー	-10.3525
カップ	-10.3525
ペア	-10.3526
西洋	-10.3527
ング	-10.353
表面	-10.3531
感謝	-10.3536
レコード	-10.3537
人で	-10.3537
書いた	-10.3539
艦	-10.3539
時点で	-10.354
移	-10.3543
いくつかの	-10.3543
實	-10.3543
洗	-10.3544
丈	-10.3549
なしに	-10.3552
の取り組み	-10.3553
IN	-10.3554
なくても	-10.3563
貫	-10.3564
合計	-10.3567
の中へ	-10.3568
2012	-10.3568
まつり	-10.3571
かず	-10.3577
学問	-10.3579
小学生	-10.3583
マップ	-10.3586
それでも	-10.3589
泥	-10.3591
の流れ	-10.3595
くん	-10.36
子供の	-10.36
向う	-10.3602
豆	-10.3603
手段	-10.3604
自転車	-10.3604
生涯	-10.3605
トーク	-10.3608
担当者	-10.3612
准教授	-10.3613
するか	-10.3619
▁こうした	-10.3621
貿易	-10.3624
なに	-10.3626
まし	-10.3627
余り	-10.3635
の紹介	-10.3636
▁それを	-10.3636
輸出	-10.3638
職場	-10.3641
これら	-10.3642
のだろう	-10.3642
次第に	-10.3646
ジャン	-10.3647
しっかり	-10.3647
俺は	-10.3648
しま	-10.3649
性質	-10.3649
トゥ	-10.365
PC	-10.3651
除	-10.3651
up	-10.3654
キング	-10.3655
ごろ	-10.3658
熊	-10.3659
積極的に	-10.3659
2007	-10.366
右衛門	-10.3661
であると	-10.3661
一部の	-10.3662
邦	-10.3666
声で	-10.367
があれば	-10.3677
特許	-10.3677
居た	-10.368
公共	-10.3681
名が	-10.3685
メニュー	-10.3685
方に	-10.3685
2009	-10.3693
区別	-10.3694
歴	-10.3697
ようだ	-10.3699
コンピュータ	-10.37
きます	-10.3703
org	-10.3707
従来の	-10.3709
表情	-10.371
est	-10.3711
不明	-10.3714
甘	-10.3715
るのは	-10.3716
などと	-10.3717
トル	-10.3717
min	-10.3718
労働者	-10.3718
なさ	-10.3718
専攻	-10.3723
四十	-10.373
▁Co	-10.3733
康	-10.3733
風景	-10.3733
わない	-10.3739
云い	-10.374
ではありません	-10.3745
frac	-10.3751
炎	-10.3751
連合	-10.3753
たて	-10.3754
読者	-10.3758
モノ	-10.3759
NHK	-10.3762
誰か	-10.3763
筈	-10.3763
ピン	-10.3763
忘れ	-10.3767
演劇	-10.3771
靴	-10.3777
といふこと	-10.3778
命令	-10.3785
うた	-10.3786
致	-10.3787
72	-10.3788
稲	-10.379
雰囲気	-10.3791
合わせ	-10.3793
合併	-10.3801
じっと	-10.3805
あなたは	-10.3807
考	-10.3808
データを	-10.3813
}(	-10.3817
シティ	-10.3824
仮	-10.3825
▁models	-10.3826
混	-10.3829
ならない	-10.383
を開催します	-10.3833
そこから	-10.3837
以後	-10.3842
事前学習	-10.3842
なくなる	-10.3844
吹き	-10.3844
日常	-10.3844
今日の	-10.3845
一人で	-10.3846
中心	-10.3846
途	-10.3847
施行	-10.3851
らは	-10.3859
財	-10.3862
の中には	-10.3862
あつた	-10.3864
なぞ	-10.3865
ないように	-10.3867
絵画	-10.3871
天皇	-10.3871
倒	-10.3872
に参加	-10.3873
ai	-10.3873
デル	-10.3873
のよ	-10.3875
リリース	-10.3877
彩	-10.3877
二十	-10.3878
▁一方で	-10.3878
いち	-10.3878
復	-10.3879
らなかった	-10.3883
死ぬ	-10.3883
選定	-10.3884
の木	-10.3885
すこし	-10.3891
東京大学	-10.3894
気分	-10.3895
地に	-10.3899
▁2000	-10.39
畳	-10.3907
受診	-10.391
出発	-10.3912
を示した	-10.3912
膝	-10.3913
の説明	-10.3915
事業所	-10.3918
ヒト	-10.392
しょ	-10.3922
ショー	-10.3925
とお	-10.3927
にあたる	-10.3928
ならぬ	-10.393
風の	-10.3932
違う	-10.3932
先輩	-10.3935
に関わる	-10.3937
或は	-10.3939
そこ	-10.3941
プロセス	-10.3942
▁[6]	-10.3944
数学	-10.3947
下記の	-10.3948
滅	-10.3951
輸送	-10.3956
ぼく	-10.3956
のではないか	-10.3959
達成	-10.3961
の前	-10.3961
シャー	-10.3962
母親	-10.3965
主人	-10.3966
支那	-10.3969
エンジン	-10.397
態	-10.3972
トピック	-10.3973
につき	-10.3974
お願い	-10.3975
おそらく	-10.3975
してゐた	-10.3978
李	-10.3979
活動を	-10.3983
樣	-10.3984
メイン	-10.399
人数	-10.399
空港	-10.3993
者に	-10.3993
引き続き	-10.3994
涙	-10.3998
何う	-10.3999
削減	-10.4002
少ない	-10.4004
スク	-10.4007
を超える	-10.4009
場合に	-10.4013
か月	-10.4014
英国	-10.4015
を除く	-10.4018
指摘	-10.4018
クル	-10.4018
のだから	-10.4023
▁Annual	-10.4023
を実施	-10.4025
▁Pro	-10.4028
om	-10.4029
称	-10.4031
特集	-10.4032
をもとに	-10.4032
ong	-10.4032
理想	-10.4038
申請書	-10.4038
科学技術	-10.4039
いません	-10.4042
考へ	-10.4044
たん	-10.4044
峰	-10.4045
と思い	-10.405
上昇	-10.4054
を引き	-10.4054
欧州	-10.4059
するのは	-10.406
hat	-10.4061
奈良	-10.4062
のもと	-10.4063
のち	-10.4064
時計	-10.4064
恐れ	-10.4065
譲	-10.4065
早い	-10.4066
だし	-10.4071
ずる	-10.4073
ホー	-10.4074
したのは	-10.4074
セッション	-10.4074
マネジメント	-10.4078
SDGs	-10.4081
多数の	-10.4081
取締役	-10.4081
タル	-10.4081
tion	-10.4083
83	-10.4084
喜び	-10.4085
にしても	-10.409
からなる	-10.4093
執筆	-10.4095
おれ	-10.4096
尻	-10.4096
お客様	-10.4099
を知る	-10.4099
慶	-10.41
イノベーション	-10.4101
噂	-10.4102
型の	-10.4103
and	-10.4103
包	-10.4108
わかる	-10.4109
才	-10.4111
処分	-10.4115
立場	-10.412
供	-10.4124
移転	-10.4124
豊かな	-10.4128
作曲	-10.4128
主要	-10.4128
今年	-10.4129
hi	-10.4132
五十	-10.4132
さんと	-10.4133
固	-10.4133
』『	-10.4133
夏の	-10.4135
RE	-10.4136
勝ち	-10.4144
▁しかも	-10.4145
革命	-10.4151
おいで	-10.4158
に伴う	-10.4161
獣	-10.4161
てください	-10.4163
これで	-10.4164
札	-10.4166
sh	-10.4167
読書	-10.4169
出身の	-10.417
申込み	-10.417
陸	-10.4175
演	-10.4175
郵送	-10.4178
徒歩	-10.4178
聞	-10.4178
研究開発	-10.418
富士	-10.4181
巣	-10.4184
嫌	-10.4187
ユーザー	-10.4187
楽しく	-10.4191
容	-10.4196
戦で	-10.4197
前から	-10.42
わず	-10.4201
替え	-10.4205
いと	-10.4206
覚え	-10.4208
バック	-10.4208
関西	-10.4209
野球	-10.4209
-3	-10.421
奏	-10.4211
わたしは	-10.4214
▁5.	-10.4217
始めて	-10.4217
憎	-10.4218
挑戦	-10.4224
動か	-10.4224
なっている	-10.4226
の一人	-10.423
作成した	-10.4233
お話	-10.4233
名称	-10.4233
ではなかった	-10.4236
★	-10.4238
妙	-10.4246
飛んで	-10.4248
楽曲	-10.4249
情報の	-10.425
年次	-10.4253
煮	-10.4254
合わせて	-10.4254
塾	-10.4255
するという	-10.4257
止め	-10.4257
be	-10.4257
失敗	-10.4259
下に	-10.4274
かない	-10.4277
▁La	-10.4284
差し	-10.4286
をし	-10.4292
パソコン	-10.4292
庄	-10.4294
2010	-10.4296
私を	-10.4296
▁Web	-10.4302
選手権	-10.4304
のだった	-10.4305
遣	-10.431
消防	-10.4311
隅	-10.4314
した後	-10.4315
挙	-10.4315
all	-10.4317
策定	-10.4318
ぢ	-10.4319
▁今回	-10.432
予	-10.4322
▁はじめに	-10.4323
やっと	-10.4323
OS	-10.4325
ID	-10.4325
ふる	-10.4326
日記	-10.4326
おか	-10.433
ひら	-10.4332
財産	-10.4335
得られた	-10.4341
prime	-10.4344
配置	-10.4344
桃	-10.4346
当たり	-10.4348
帰って	-10.4348
通知	-10.4349
盛り	-10.4349
ガイド	-10.4351
多数	-10.4351
敏	-10.4351
因	-10.4354
秘密	-10.4357
延長	-10.4361
普及	-10.4367
▁東	-10.4367
ue	-10.4368
玄関	-10.4371
遠い	-10.4373
害	-10.4373
ワーク	-10.4376
速度	-10.4379
等について	-10.4381
▁[7]	-10.4381
out	-10.4382
ライト	-10.4383
ないので	-10.4384
侍	-10.4394
81	-10.4394
作用	-10.4399
してしまった	-10.4402
お前は	-10.4402
體	-10.4403
帰る	-10.4404
に入り	-10.4406
ごみ	-10.4407
既存の	-10.441
然と	-10.4413
取って	-10.4414
だね	-10.4415
詰め	-10.4416
みたい	-10.4418
きっかけ	-10.4419
タンパク質	-10.442
海軍	-10.4423
サブ	-10.4424
山田	-10.4426
96	-10.4428
振興	-10.4429
自分に	-10.4429
笠	-10.4433
どういう	-10.4436
根拠	-10.4436
ce	-10.4437
ポスター	-10.4438
大規模	-10.4439
行つた	-10.4441
水を	-10.4442
後期	-10.4443
グリーン	-10.4443
ケー	-10.4446
同社	-10.4452
首を	-10.4453
回復	-10.4455
当然	-10.4456
ステ	-10.4456
弁護士	-10.4459
▁Learning	-10.446
古代	-10.446
かえって	-10.446
都合	-10.446
宣言	-10.446
川の	-10.4461
知る	-10.4462
廊下	-10.4462
答	-10.4463
亜	-10.4465
▁w	-10.4466
言ふ	-10.4469
わたくし	-10.447
エー	-10.447
それだけ	-10.4474
完全に	-10.4482
を持った	-10.4484
以前	-10.4485
97	-10.4488
をもつ	-10.4491
同一	-10.4495
怪	-10.4498
vi	-10.45
針	-10.4501
誠	-10.4503
坐	-10.4503
なにか	-10.4504
の種類	-10.4505
時代に	-10.4508
カリ	-10.451
似	-10.4511
art	-10.4516
補	-10.452
晴れ	-10.452
棚	-10.4524
net	-10.4525
学園	-10.4527
の本	-10.4528
世帯	-10.4529
記号	-10.453
日目	-10.4534
を示し	-10.4541
女中	-10.4545
データの	-10.4545
存	-10.4551
AT	-10.4552
ということを	-10.4554
IP	-10.4554
デイ	-10.4555
do	-10.4556
▁今日は	-10.4558
自由に	-10.4559
学年	-10.4561
にくい	-10.4561
世間	-10.4562
エイ	-10.4563
ken	-10.4564
いか	-10.4565
連れ	-10.4567
利益	-10.4569
アーティスト	-10.457
なくて	-10.4572
今回	-10.4574
膜	-10.4574
▁私の	-10.4575
上げた	-10.4576
:1	-10.4578
んだよ	-10.4581
TO	-10.4584
AS	-10.4587
いっぱい	-10.4587
昌	-10.4588
自分を	-10.4588
おります	-10.4589
側に	-10.459
みて	-10.459
予選	-10.459
▁→	-10.4591
chi	-10.4595
把握	-10.4595
闇	-10.4595
伸び	-10.4596
cdot	-10.4598
アンケート	-10.4599
班	-10.4601
すぎ	-10.4601
浩	-10.4606
一方で	-10.4611
馬鹿	-10.4612
愛知県	-10.4615
一種の	-10.4618
71	-10.4619
成績	-10.4621
ばかりの	-10.4621
地上	-10.4621
レビュー	-10.4623
※	-10.4623
汝	-10.4624
昔の	-10.4627
金を	-10.463
▁Le	-10.463
伏	-10.4633
▁Meeting	-10.4633
それも	-10.4633
▁Con	-10.4635
にとっては	-10.4637
増加	-10.4638
チャー	-10.464
ぴ	-10.4641
短い	-10.4643
全員	-10.4644
ゞ	-10.4651
TA	-10.4651
路線	-10.4653
一枚	-10.4654
商業	-10.4657
心持	-10.4659
いずれ	-10.4662
適	-10.4664
種類の	-10.4669
ゴール	-10.467
市役所	-10.4671
-10	-10.4675
1000	-10.468
宅	-10.4681
なのです	-10.4682
聲	-10.4682
(2	-10.4684
加入	-10.4686
総会	-10.4686
ております	-10.4686
呼び	-10.469
メーカー	-10.469
舌	-10.4691
文を	-10.4692
実装	-10.4692
提示	-10.4692
登場	-10.4693
▁19	-10.47
に入る	-10.4702
協働	-10.4702
聴	-10.4703
年より	-10.4705
ようとする	-10.4708
氏名	-10.4709
助け	-10.471
ものではない	-10.471
支配	-10.4711
と考える	-10.4715
旦那	-10.4719
位の	-10.4724
SP	-10.4725
働く	-10.4726
回目	-10.4727
▁最後に	-10.4729
魔	-10.4731
階級	-10.4731
ければ	-10.4733
須	-10.4736
リス	-10.4736
体系	-10.4742
していたが	-10.4743
等で	-10.4746
損	-10.4747
の作品	-10.4748
これまでの	-10.475
出来ない	-10.4758
しなければならない	-10.4764
趣味	-10.4766
陸軍	-10.4776
ot	-10.4787
で開催された	-10.4788
明らかに	-10.479
にする	-10.4791
ST	-10.4796
当初	-10.4797
くれた	-10.4799
荘	-10.48
停止	-10.48
俗	-10.4801
▁場所	-10.4803
かし	-10.4808
大いに	-10.4809
ぽ	-10.4812
嘘	-10.4815
進出	-10.4816
湾	-10.4816
運命	-10.4817
ER	-10.4818
アメリカの	-10.482
マスク	-10.4825
翌年	-10.4827
監	-10.4829
くて	-10.4833
っちゃ	-10.4839
▁Mo	-10.4845
ものであった	-10.485
間もなく	-10.485
効	-10.4852
保育	-10.4857
学習データ	-10.4858
AR	-10.4858
ソフトウェア	-10.4859
砲	-10.4859
アウト	-10.4864
バラ	-10.4865
被災地	-10.4866
Adobe	-10.4866
▁此	-10.4867
だな	-10.4868
を出して	-10.4869
ative	-10.4869
蛇	-10.487
研究センター	-10.4871
運行	-10.4873
原則	-10.4874
伊藤	-10.4874
十五	-10.4875
なんです	-10.4881
中小企業	-10.4883
嫁	-10.4884
のやうな	-10.4885
癖	-10.4886
の皆様	-10.4886
恐ろしい	-10.4886
かに	-10.4888
霧	-10.4888
未だ	-10.489
しめ	-10.4892
▁その時	-10.4894
寿	-10.4894
穂	-10.4895
▁件	-10.4896
後半	-10.4897
写	-10.4897
▁実験	-10.4899
彼を	-10.4899
邸	-10.49
▁然し	-10.4901
日々	-10.4903
んだから	-10.4907
調子	-10.4908
當	-10.4916
翌日	-10.4921
アメリカ合衆国	-10.4921
語の	-10.4922
ig	-10.4923
猿	-10.4926
を学ぶ	-10.4927
なれば	-10.4927
ション	-10.4931
チョ	-10.4931
如	-10.4933
ワー	-10.4933
をつけて	-10.4934
地下	-10.4935
何故	-10.4939
教材	-10.4941
ance	-10.4942
県内	-10.4942
調べ	-10.4947
アプローチ	-10.4948
丁度	-10.4948
修了	-10.4948
従業員	-10.4954
紋	-10.4955
眺め	-10.4958
できるように	-10.4959
カラー	-10.4962
斎	-10.4964
になっていた	-10.4964
長崎	-10.4965
ミン	-10.4967
せば	-10.497
連盟	-10.497
数が	-10.4971
厚	-10.4973
2011	-10.4974
と呼ぶ	-10.4975
グラ	-10.4977
盗	-10.4977
幹	-10.4979
迷	-10.498
立派な	-10.498
迄	-10.4981
ti	-10.4981
#	-10.4991
大分	-10.4992
降り	-10.4993
いろ	-10.4997
いつか	-10.4998
形の	-10.5
祭り	-10.5002
▁[8]	-10.5002
れない	-10.5005
経過	-10.5006
話す	-10.5006
象	-10.5009
言葉を	-10.5011
それまで	-10.5012
と云って	-10.5022
探	-10.5023
オル	-10.5025
微	-10.5025
のでした	-10.5026
どちら	-10.5028
歳の	-10.5029
ボー	-10.5031
2006	-10.5038
ないか	-10.504
口に	-10.5043
さい	-10.5045
南部	-10.5047
の平均	-10.5048
AL	-10.5048
ジン	-10.5049
中学生	-10.505
わり	-10.505
たのは	-10.5051
イー	-10.5051
レシピ	-10.5052
▁$[	-10.5053
ステップ	-10.5054
が行われました	-10.5056
の中の	-10.5059
一杯	-10.506
]$	-10.5062
専用	-10.5062
だけが	-10.5065
んですよ	-10.5072
朝鮮	-10.5072
▁更新日	-10.5074
▁St	-10.5075
微笑	-10.5075
gram	-10.5078
買	-10.5083
玄	-10.5083
吸	-10.5084
カナダ	-10.5085
初代	-10.5086
大型	-10.5087
伸	-10.5088
ケン	-10.5089
有名な	-10.5089
部隊	-10.5095
舎	-10.5108
武士	-10.5109
お茶	-10.511
届出	-10.5111
ご協力	-10.5116
を始め	-10.5123
詳細	-10.5123
信頼	-10.5124
するように	-10.5128
島の	-10.5129
ナイ	-10.5131
意図	-10.5132
医者	-10.5134
カイ	-10.5134
のメンバー	-10.5139
No	-10.5141
元の	-10.5143
歩く	-10.5144
つと	-10.5144
牧	-10.5146
成立	-10.5148
変数	-10.515
合成	-10.5151
察	-10.5152
免	-10.5153
ゴー	-10.5155
即	-10.5156
per	-10.516
加工	-10.5161
の森	-10.5161
雷	-10.5163
▁2005	-10.5169
とすれば	-10.5169
出席	-10.5171
いたが	-10.5178
沖	-10.5178
懐	-10.5183
チラシ	-10.5183
訂正	-10.5184
にあり	-10.5184
さら	-10.5184
シーン	-10.5188
どんなに	-10.5192
やかな	-10.5193
姿勢	-10.5194
ディー	-10.5194
臨	-10.5194
木の	-10.5195
虎	-10.5197
脇	-10.52
封	-10.5201
2005	-10.5202
宿泊	-10.5204
グリ	-10.5205
教育委員会	-10.521
臨時	-10.5215
それら	-10.5216
▁1)	-10.5219
理事	-10.5221
支	-10.5221
準	-10.5223
貢献	-10.523
得点	-10.523
の学習	-10.5231
SE	-10.5232
\%	-10.5238
地元の	-10.5238
つながり	-10.524
意見交換	-10.5242
來た	-10.5242
まん	-10.5242
(0)	-10.5246
そんなに	-10.5248
述べた	-10.5248
女が	-10.5252
輸入	-10.5252
はっきり	-10.5256
境界	-10.5257
を参照	-10.5259
に対応する	-10.5262
子供たち	-10.5262
親子	-10.5265
sp	-10.5266
▁2021.	-10.5268
二人は	-10.5273
妾	-10.5273
活性化	-10.5279
先の	-10.5283
生きる	-10.5284
言ひ	-10.5285
競争	-10.5285
単語の	-10.5286
フィールド	-10.5286
▁2004	-10.5288
をしていた	-10.5291
んと	-10.5291
東日本大震災	-10.5292
菌	-10.5292
岳	-10.5294
休日	-10.5295
尊	-10.5298
ep	-10.5299
▁午後	-10.5299
の存在	-10.5299
▁Japan	-10.5302
というような	-10.5308
▁〔	-10.5308
鍵	-10.5309
展覧会	-10.531
戦後	-10.5316
黙って	-10.5316
終わり	-10.5317
の名前	-10.5317
仕様	-10.5317
語義	-10.5319
ウェブサイト	-10.5322
しようと	-10.5322
らう	-10.5324
▁電話番号	-10.5324
▁しかしながら	-10.5325
▁pre	-10.5329
受験	-10.533
はなかった	-10.533
簡単に	-10.5332
ph	-10.5332
丁	-10.5334
ちゃんと	-10.5335
かもしれません	-10.5338
松本	-10.5341
ウクライナ	-10.5343
適応	-10.5345
のでしょうか	-10.5346
だという	-10.5347
沈	-10.5348
甚	-10.5349
▁そう	-10.535
-4	-10.535
危機	-10.5351
手続	-10.5353
ことはない	-10.5354
テーブル	-10.5357
手の	-10.5358
おすすめ	-10.5359
どこ	-10.5362
SC	-10.5365
開設	-10.5368
他に	-10.5369
機械翻訳	-10.5373
そうした	-10.5374
たゞ	-10.5374
軍の	-10.5374
の姿	-10.5375
▁全	-10.5377
一同	-10.5378
があつた	-10.538
続	-10.5383
削除	-10.5386
森林	-10.5386
のなかに	-10.5391
教科書	-10.5392
ロス	-10.5402
消費者	-10.5403
植	-10.5407
▁+	-10.5408
チャンネル	-10.5409
付近	-10.541
文化財	-10.541
行列	-10.5413
を図	-10.5414
ガラス	-10.5418
を迎え	-10.5418
秋の	-10.5419
主な	-10.5424
オブ	-10.5424
ユー	-10.5425
というのが	-10.5425
▁以下	-10.5426
女性の	-10.5426
傍	-10.5427
夕方	-10.5428
へて	-10.5429
http	-10.5431
▁at	-10.5432
得意	-10.5439
とうとう	-10.544
▁data	-10.5441
しばしば	-10.5443
むら	-10.5445
ごとの	-10.5445
との関係	-10.5445
ないと	-10.5446
だろうか	-10.5447
▁Machine	-10.5448
お父さん	-10.5448
▁100	-10.5458
集中	-10.5459
キャンペーン	-10.5459
しまい	-10.5462
シェ	-10.5462
患者さん	-10.5462
アイデア	-10.5465
によつて	-10.5467
しまう	-10.547
消費	-10.5471
なのである	-10.5472
ほしい	-10.5473
ゆう	-10.5474
の役割	-10.5474
割合	-10.5474
▁其	-10.5474
に来て	-10.5476
経済学	-10.548
事態	-10.548
昇	-10.5481
会館	-10.5487
の如き	-10.5487
低下	-10.5488
かしら	-10.5493
ニューヨーク	-10.5493
廃止	-10.5498
いら	-10.5498
▁これが	-10.5499
漁	-10.5499
着物	-10.5502
資産	-10.5502
条約	-10.5503
埋め	-10.5503
体の	-10.5504
手で	-10.5505
ってしまった	-10.5505
祝日	-10.5509
唯一の	-10.5509
を作って	-10.5511
os	-10.5513
▁こんな	-10.5515
肥	-10.5519
蓮	-10.5521
貴重な	-10.5525
県民	-10.5525
ロード	-10.5525
000	-10.5526
オーストラリア	-10.5526
自殺	-10.5527
紫	-10.5527
▁対象	-10.5528
触	-10.5528
黙	-10.5529
明け	-10.553
の数	-10.5536
月曜日	-10.5538
っぱ	-10.5538
だか	-10.5538
書籍	-10.5542
▁午前	-10.5544
列車	-10.5545
要請	-10.5546
抜け	-10.5548
▁[9]	-10.5548
フォー	-10.555
何が	-10.5551
政治家	-10.5553
頃から	-10.5554
dagger	-10.5556
衛生	-10.5558
協	-10.5562
がいい	-10.5563
記者	-10.5564
女優	-10.5565
吉田	-10.5568
入った	-10.557
触れ	-10.5574
次に	-10.5577
にもかかわらず	-10.5581
十郎	-10.5583
の子	-10.5583
フォン	-10.5585
立った	-10.5585
の方から	-10.5585
呼吸	-10.5589
時刻	-10.559
に加えて	-10.559
いきなり	-10.5592
YouTube	-10.5592
▁提案手法	-10.5595
やや	-10.5595
{~	-10.5596
▁四	-10.5598
とにかく	-10.5598
バージョン	-10.5601
気を	-10.5601
自主	-10.5601
RO	-10.5601
一歩	-10.5607
人間が	-10.5612
if	-10.5614
の対象	-10.5618
フラ	-10.562
に位置する	-10.5623
死亡	-10.5625
ようになる	-10.5626
当選	-10.563
ベイ	-10.5632
150	-10.5637
遅れ	-10.5637
▁g	-10.5641
▁地域	-10.5641
上り	-10.5641
を対象とした	-10.5643
サイエンス	-10.5646
中学	-10.5648
刺激	-10.5648
飛行	-10.5649
織	-10.5652
ブック	-10.5654
性を	-10.5654
頭に	-10.5662
徒	-10.5666
94	-10.5666
一般的な	-10.567
予想	-10.5672
怒	-10.5676
文字列	-10.5682
RA	-10.5683
▁トップ	-10.5686
の顔	-10.5687
支部	-10.569
ical	-10.5691
仮説	-10.5694
▁2023.	-10.5695
熟	-10.5695
所有	-10.5697
釣	-10.5697
▁it	-10.5698
外に	-10.5703
はまた	-10.5703
システムの	-10.5705
扉	-10.5706
眼に	-10.5706
ポン	-10.5706
してしまう	-10.5707
73	-10.5711
過去の	-10.5712
いわ	-10.5713
心理	-10.5715
姓	-10.5717
できること	-10.5717
破壊	-10.5718
春の	-10.5719
メールアドレス	-10.5723
臨床	-10.573
祖	-10.573
禁	-10.5731
思わず	-10.5732
▁当	-10.5733
枕	-10.5735
いろんな	-10.5735
将軍	-10.5739
垣	-10.5741
ee	-10.5741
JR	-10.5742
ものであり	-10.5742
▁Yu	-10.5742
プリ	-10.5745
時間を	-10.5747
入試	-10.5747
残り	-10.5749
の国	-10.575
−	-10.5751
贈	-10.5752
ていたが	-10.5752
闘	-10.5752
ント	-10.5752
がいる	-10.5755
最大の	-10.5756
▁Se	-10.5759
国連	-10.5761
静かに	-10.5766
ドー	-10.5766
得た	-10.5769
踏み	-10.577
▁=	-10.5771
詩人	-10.5772
上映	-10.5774
92	-10.5776
人達	-10.578
していること	-10.578
AC	-10.5781
卒業生	-10.5782
療法	-10.5783
の心	-10.5784
はどう	-10.5786
同時	-10.5789
スケジュール	-10.5789
▁j	-10.5795
フェア	-10.5795
アカデミー	-10.5796
ガイドライン	-10.58
せた	-10.5804
ソース	-10.5805
庵	-10.5809
何でも	-10.5813
座敷	-10.5813
面接	-10.5813
されない	-10.5814
ることができる	-10.5816
功	-10.5817
同じく	-10.5821
あれは	-10.5821
芽	-10.5822
▁彼の	-10.5824
突き	-10.5825
あるもの	-10.5827
云って	-10.5828
耳に	-10.5831
NA	-10.5833
詰	-10.5833
上げて	-10.5834
あん	-10.5834
漫画	-10.5838
唄	-10.5839
▁やがて	-10.5839
MT	-10.584
課長	-10.5841
潜	-10.5842
見えない	-10.5843
置いた	-10.5844
くなる	-10.5846
▁その結果	-10.5847
清水	-10.585
プレイ	-10.585
りながら	-10.5852
分から	-10.5853
固定	-10.5855
僕が	-10.5856
チケット	-10.5857
學	-10.5864
▁西	-10.5864
政権	-10.5866
人々は	-10.5868
たった	-10.5869
に入って	-10.5872
てる	-10.5879
の中心	-10.5882
うん	-10.5885
やす	-10.5887
方を	-10.5888
提言	-10.589
家は	-10.589
の言葉	-10.589
ヘル	-10.5895
山口	-10.5897
嘉	-10.5899
踊り	-10.59
わたしの	-10.5902
揚	-10.5902
チュ	-10.5904
らし	-10.5909
と言ふ	-10.5909
独自の	-10.591
知らぬ	-10.5912
ウェイ	-10.5913
ことです	-10.5917
せられた	-10.5918
汽車	-10.5918
ルーム	-10.5918
を得て	-10.5919
添	-10.592
暫く	-10.5922
世話	-10.5924
普段	-10.5927
レット	-10.593
トレーニング	-10.593
常識	-10.5932
完全	-10.5938
染	-10.5939
だれ	-10.5939
頭の	-10.5942
をとり	-10.5944
を図る	-10.5947
干	-10.5949
だと思います	-10.5949
私たちの	-10.5951
つぶ	-10.5951
エス	-10.5952
一定の	-10.5954
時間が	-10.5956
鎮	-10.5957
いけない	-10.5957
に従って	-10.596
本の	-10.5963
に行った	-10.5963
忍	-10.5964
彼らの	-10.5965
小さく	-10.5966
いふ	-10.5966
フォーム	-10.5966
▁2018.	-10.5967
優れた	-10.5971
プレー	-10.5973
生活を	-10.5974
世に	-10.5977
の活用	-10.5977
といい	-10.5978
コンテスト	-10.5979
要望	-10.5979
最近	-10.5984
瞬間	-10.5988
▁Al	-10.599
信仰	-10.599
偽	-10.5995
ビジョン	-10.5996
ヴァン	-10.5999
養成	-10.6
アリ	-10.6002
クリスマス	-10.6004
寄り	-10.6005
ユニット	-10.6006
昨夜	-10.6008
楽器	-10.6008
同意	-10.6009
場面	-10.6009
を生成する	-10.601
本研究	-10.6012
派の	-10.6013
べクトル	-10.6013
2004	-10.6017
82	-10.6017
地名	-10.6019
の授業	-10.6022
火曜日	-10.6023
類似度	-10.6025
毎	-10.6025
▁北	-10.6026
研究科	-10.6026
並	-10.6027
対立	-10.6029
まって	-10.6029
アナ	-10.6035
ner	-10.6036
構想	-10.6036
寺の	-10.6037
そのような	-10.604
卓	-10.6042
束	-10.6044
王国	-10.6048
山本	-10.6049
容易に	-10.6052
▁学校	-10.6053
決め	-10.6059
返し	-10.606
結論	-10.6062
ショ	-10.6062
そんなこと	-10.6063
IS	-10.6065
入る	-10.6066
コル	-10.6067
佳	-10.6069
いなかった	-10.6069
かる	-10.6071
神奈川県	-10.6075
弓	-10.6076
歴史的	-10.6077
録	-10.608
人類	-10.6082
われた	-10.6082
数字	-10.6083
ところが	-10.6084
作品を	-10.6085
AD	-10.6085
高等	-10.6086
劣	-10.6087
置く	-10.6087
辻	-10.609
景観	-10.609
水曜日	-10.6093
云ふ	-10.6095
の状況	-10.6095
寒い	-10.6098
かれた	-10.61
蒼	-10.6101
金額	-10.6104
ゲスト	-10.6106
ところへ	-10.6109
ラグビー	-10.611
安心して	-10.6111
息子	-10.6112
明るい	-10.6114
▁▲	-10.6115
の使用	-10.6118
うしろ	-10.6119
ようやく	-10.6122
こっち	-10.6122
ブロック	-10.6124
しません	-10.6127
我々の	-10.6132
りて	-10.6132
主人公	-10.6133
承知	-10.6135
ところを	-10.6136
を用い	-10.6143
宮城県	-10.6143
ヴァー	-10.6144
進み	-10.6149
くなって	-10.615
くれる	-10.6151
青い	-10.6152
鑑賞	-10.6152
iv	-10.6156
識別	-10.6157
の支援	-10.6159
bu	-10.6159
考慮	-10.616
子どもたち	-10.616
裁判	-10.6163
オフ	-10.6164
大規模な	-10.6164
MS	-10.6166
消	-10.6169
先生が	-10.617
eng	-10.617
協議	-10.6172
にいる	-10.6172
刑	-10.6174
ミス	-10.6175
支持	-10.6175
:2	-10.6176
一言	-10.6177
保証	-10.6179
不要	-10.618
ast	-10.6181
▁〇	-10.6186
フォ	-10.6186
UN	-10.6186
▁参考文献	-10.6187
需要	-10.619
定員	-10.6191
するなど	-10.6191
ا	-10.6192
を活用した	-10.6196
苦労	-10.6199
飾	-10.6201
年度の	-10.6202
感動	-10.6203
ついに	-10.6203
続いて	-10.6203
mon	-10.6203
すぎる	-10.6204
して居る	-10.6207
してくれ	-10.621
確	-10.6213
娘の	-10.6216
氏が	-10.6218
!』	-10.6222
ふれあい	-10.6224
仕組み	-10.6224
▁昭和	-10.6226
マリ	-10.6227
体育	-10.6227
の色	-10.623
連絡先	-10.6234
了	-10.6242
かす	-10.6244
▁具体的には	-10.6245
講	-10.6246
向けの	-10.6246
何処	-10.6246
の性能	-10.6246
縦	-10.6247
編成	-10.625
できなかった	-10.6251
を与え	-10.6255
able	-10.6256
)～	-10.6257
のなかで	-10.6257
オランダ	-10.6261
込	-10.6261
系統	-10.6265
だけに	-10.6266
中には	-10.6267
たもの	-10.6268
うか	-10.627
ネス	-10.6272
起こ	-10.6273
鶏	-10.6274
蘭	-10.6278
送信	-10.6279
推	-10.628
貴族	-10.6282
られました	-10.6283
洲	-10.6284
当て	-10.6286
へん	-10.6287
拝	-10.629
基金	-10.6291
SNS	-10.6292
づけ	-10.6294
人民	-10.6297
架	-10.6299
大学生	-10.6303
るために	-10.6304
を務める	-10.6304
DVD	-10.6305
生きて	-10.6306
知らず	-10.631
身の	-10.631
従来	-10.6311
bi	-10.6312
だの	-10.6314
に来た	-10.6318
▁Ha	-10.6319
、2020	-10.6322
勤め	-10.6324
皆様	-10.6324
戻	-10.6324
外来	-10.6325
一般に	-10.6326
回数	-10.6328
ナン	-10.633
いえ	-10.6333
縄	-10.6337
ty	-10.6338
ばかりで	-10.6338
こんなに	-10.6341
母の	-10.6348
つける	-10.635
胸に	-10.6351
私には	-10.6351
するとともに	-10.6352
なさる	-10.6354
父親	-10.6354
お店	-10.6357
ませ	-10.636
▁Pre	-10.636
東洋	-10.636
ファー	-10.6362
という言葉	-10.6364
▁2003	-10.6364
更	-10.6369
昨年	-10.637
▁概要	-10.6372
知って	-10.6372
ザン	-10.6376
とおり	-10.6376
ことが多い	-10.6378
くら	-10.638
千葉県	-10.6382
ide	-10.6385
▁using	-10.6385
らが	-10.6389
三日	-10.6389
ましい	-10.639
区間	-10.6391
▁[10]	-10.6392
学校の	-10.6397
序	-10.6399
財団	-10.6399
蓋	-10.64
捨て	-10.64
用いられる	-10.64
旅館	-10.6403
あなたが	-10.6404
han	-10.6404
妙な	-10.6405
間で	-10.6406
間違い	-10.6408
金属	-10.6411
▁高	-10.6413
1-1	-10.6415
を取	-10.6417
▁Me	-10.6418
期限	-10.6418
来ました	-10.642
看護師	-10.642
駈け	-10.6423
▁Neural	-10.6423
シート	-10.6423
継承	-10.6424
自宅	-10.6429
わか	-10.643
抜	-10.6439
研究員	-10.6441
外の	-10.6446
までも	-10.6446
みました	-10.6448
二階	-10.6449
借	-10.645
澄	-10.6451
モデルは	-10.6453
であるか	-10.6454
合格	-10.6454
相手の	-10.6454
LM	-10.6456
というものは	-10.6465
悲	-10.6466
静岡県	-10.6467
自信	-10.6468
元年	-10.6468
ベトナム	-10.647
MI	-10.6473
北部	-10.6475
新型コロナウイルス感染症	-10.6477
正しく	-10.648
江戸時代	-10.6481
待って	-10.6482
リズム	-10.6482
po	-10.6486
ja	-10.6486
抗	-10.6487
かも	-10.6491
さて	-10.6493
ence	-10.6493
疲れ	-10.6495
バランス	-10.6495
エンティティ	-10.6495
帽子	-10.6496
化した	-10.6496
昭	-10.6498
木曜日	-10.6499
矛盾	-10.6499
明か	-10.6499
いかにも	-10.6499
ふう	-10.6502
トレ	-10.6503
改良	-10.6504
する場合	-10.6507
控え	-10.6508
クレ	-10.6508
なるもの	-10.6508
ありました	-10.6508
信州	-10.6509
lg	-10.6509
▁con	-10.651
左右	-10.6512
へ行く	-10.6514
特殊	-10.6515
大学で	-10.6515
社会の	-10.6515
の発展	-10.6516
銅	-10.6516
タウン	-10.6517
ジャー	-10.6518
ート	-10.6521
分野の	-10.6522
ますが	-10.6522
知り	-10.6525
はもちろん	-10.6526
ニーズ	-10.6531
行われた	-10.6533
(3	-10.6534
ッチ	-10.6536
ものがある	-10.6539
婦	-10.654
の基礎	-10.654
合った	-10.6542
豪	-10.6543
踏	-10.6543
▁text	-10.6546
考えた	-10.6547
コレクション	-10.6548
を踏まえ	-10.6549
探索	-10.6552
お問い合わせ	-10.6553
へる	-10.6555
(3)	-10.6559
▁前	-10.656
ei	-10.6561
時分	-10.6566
緊張	-10.6566
無い	-10.6571
もはや	-10.6571
言及	-10.6575
太夫	-10.6575
数値	-10.6577
▁一般	-10.658
創業	-10.6583
庫	-10.6584
▁講師	-10.6584
幅広い	-10.6588
厭	-10.6593
素材	-10.6594
じて	-10.6595
▁したがって	-10.6596
都道府県	-10.6596
期の	-10.6597
▁私が	-10.6598
▁Ko	-10.6599
類似	-10.66
會	-10.6605
区分	-10.6605
シア	-10.6605
進め	-10.6606
平次	-10.6607
ub	-10.6608
お金	-10.6608
々しい	-10.6611
もう一度	-10.6612
}}\	-10.6613
始	-10.6614
1,000	-10.6615
壮	-10.6619
出会い	-10.662
の実	-10.6621
=\	-10.6627
知っている	-10.6627
埋め込み	-10.6627
マス	-10.6629
鍋	-10.6629
ワールド	-10.663
ci	-10.6634
台風	-10.6634
個別	-10.6636
楽しみ	-10.664
童	-10.6642
透	-10.6644
悩み	-10.6644
部会	-10.6646
少なくとも	-10.6648
ant	-10.6651
歓迎	-10.6655
気象	-10.6657
に取り組む	-10.6657
大切な	-10.6658
札幌	-10.6658
鐘	-10.6659
すと	-10.6659
▁そういう	-10.666
の取組	-10.6662
レッド	-10.6664
るため	-10.6664
の整備	-10.6665
特性	-10.6667
のですか	-10.667
ふり	-10.667
おまえ	-10.6671
》	-10.6673
会社の	-10.6674
一年	-10.6675
海の	-10.6676
おいて	-10.6676
水の	-10.6679
▁translation	-10.6681
殆ど	-10.6682
左衛門	-10.6686
にした	-10.6686
を目指して	-10.6689
先行研究	-10.6694
執	-10.6695
入院	-10.6697
pe	-10.6698
の場	-10.6701
系の	-10.6703
-20	-10.6708
組み	-10.6709
地域で	-10.6712
人材育成	-10.6712
審議会	-10.6713
意志	-10.6713
載	-10.6714
木村	-10.6717
欲しい	-10.6717
▁2022.	-10.6718
FAX	-10.672
ひき	-10.6723
であるため	-10.6724
理事長	-10.6725
ke	-10.6727
で行われた	-10.6728
にあたり	-10.6728
ビン	-10.6728
アス	-10.6729
中村	-10.673
ラム	-10.6731
しつつ	-10.6732
宏	-10.6734
かかって	-10.6734
ップ	-10.6737
ったら	-10.6737
等が	-10.6737
論理	-10.674
のデータ	-10.674
続く	-10.6745
いつでも	-10.6745
感想	-10.6746
を使用する	-10.6748
一生	-10.675
誰が	-10.675
蔭	-10.675
らせて	-10.6753
の女	-10.6754
巻き	-10.6755
以前の	-10.6758
ふるさと	-10.6758
ボン	-10.6759
ow	-10.6759
遺跡	-10.676
誕生	-10.676
ていて	-10.6761
述語	-10.6762
ルド	-10.6763
ドア	-10.6763
恐らく	-10.6764
室内	-10.6764
三重県	-10.6765
施設の	-10.6765
容易	-10.677
▁pro	-10.6772
▁$(	-10.6774
弟子	-10.6775
効率	-10.6777
読んで	-10.6778
まつ	-10.6779
新潟	-10.6782
▁これまで	-10.6783
今年度	-10.6783
水準	-10.6785
ポー	-10.6785
会議室	-10.6785
問い合わせ	-10.6785
を感じ	-10.6787
二三	-10.6789
砂糖	-10.679
借り	-10.6791
にいた	-10.6791
指導者	-10.6792
朝の	-10.6793
もり	-10.6794
近年	-10.6795
暦	-10.6795
子を	-10.6796
得られる	-10.6798
貴方	-10.6799
人工	-10.6799
資本	-10.6804
:10	-10.6806
MO	-10.6807
と思いました	-10.6811
絶対	-10.6812
喰	-10.6812
内閣	-10.6813
習慣	-10.6815
この頃	-10.6815
▁Ba	-10.6816
していて	-10.6817
地の	-10.6818
プロンプト	-10.6819
▁データセット	-10.6822
椅子	-10.6822
平日	-10.6822
って来た	-10.6823
者を	-10.6824
となっています	-10.6825
およそ	-10.6826
させていただきます	-10.6827
完了	-10.6828
高橋	-10.6829
貸	-10.683
採	-10.6832
メント	-10.6835
監査	-10.6836
順位	-10.6836
食材	-10.6836
済	-10.6838
公募	-10.684
帳	-10.6842
恐怖	-10.6842
行われ	-10.6842
環	-10.6843
せずに	-10.6844
減少	-10.6846
笛	-10.6847
ぼう	-10.6848
サル	-10.6848
燃え	-10.6848
何だか	-10.6849
汁	-10.685
家を	-10.6854
寸	-10.6854
▁いや	-10.6855
を務め	-10.6857
偶然	-10.6857
諸国	-10.6858
菓子	-10.6858
ay	-10.6859
離れた	-10.6864
力が	-10.6866
検定	-10.6869
おや	-10.687
▁五	-10.6871
繋	-10.6872
犯人	-10.6875
URL	-10.6878
抜き	-10.6879
アラ	-10.688
配慮	-10.6881
共和国	-10.6881
ga	-10.6882
op	-10.6885
差別	-10.6888
兵庫県	-10.6889
以内	-10.689
進む	-10.6891
見られる	-10.6892
キャンプ	-10.6893
委託	-10.6894
にならない	-10.6897
問い	-10.6898
物体	-10.6899
払	-10.6899
so	-10.69
に属する	-10.6901
ハッ	-10.6903
は全く	-10.6904
まさに	-10.6905
トラック	-10.6906
想	-10.6909
開催された	-10.691
2003	-10.6913
液	-10.6915
の方法	-10.6917
▁Ra	-10.6917
百姓	-10.6917
のうえ	-10.6919
代の	-10.6921
天井	-10.6922
起き	-10.6932
死去	-10.6933
場合があります	-10.6936
と言った	-10.6939
作者	-10.6947
合意	-10.6947
縮	-10.6948
違	-10.6953
▁トップページ	-10.6958
のみで	-10.6962
扱い	-10.6962
さっき	-10.6965
できません	-10.6965
想い	-10.6966
さと	-10.6967
ual	-10.6967
場の	-10.6971
相関	-10.6971
演出	-10.6972
ダル	-10.6976
化する	-10.698
留学生	-10.6981
CS	-10.6981
の位置	-10.6982
▁すなわち	-10.6982
みよう	-10.6984
惨	-10.6984
が必要である	-10.6987
ならん	-10.6987
する必要がある	-10.6988
▁このように	-10.699
争	-10.6995
首相	-10.6996
たしかに	-10.6997
オス	-10.6997
EU	-10.6997
times	-10.6997
横断	-10.6999
みなさん	-10.6999
ウェブ	-10.7
定期	-10.7
Re	-10.7
ary	-10.7005
との連携	-10.7006
罰	-10.7006
顏	-10.7008
見せ	-10.701
そこへ	-10.7011
の目的	-10.7014
600	-10.7018
ことがあります	-10.702
▁no	-10.702
を作成し	-10.7022
ベースライン	-10.7022
なこと	-10.7023
ギャラリー	-10.7025
評判	-10.7026
意味で	-10.7027
猛	-10.7027
酒を	-10.7031
▁北海道	-10.7032
認知	-10.7032
備	-10.7033
▁k	-10.7036
▁もちろん	-10.7037
勢力	-10.7038
終了しました	-10.7039
を設置し	-10.7042
オリ	-10.7044
伊勢	-10.7044
人事	-10.7047
もち	-10.7048
を作成する	-10.7049
フィルム	-10.705
、2018	-10.7052
:02	-10.7055
まれた	-10.7055
▁2002	-10.7058
批評	-10.7059
何ん	-10.706
の割合	-10.7061
故郷	-10.7061
執行	-10.7062
んですか	-10.7062
line	-10.7063
▁[11]	-10.7065
をかけて	-10.7066
へ行って	-10.7066
▁Bo	-10.7066
やく	-10.7067
の神	-10.7068
どこか	-10.707
創設	-10.7072
離れ	-10.7074
温度	-10.7075
困る	-10.7077
サンプル	-10.7079
胆	-10.7079
真実	-10.7081
指揮	-10.7082
}}$	-10.7083
にわたって	-10.7086
AN	-10.7087
彼ら	-10.709
▁Gu	-10.709
糖	-10.7091
につながる	-10.7092
わる	-10.7093
屈	-10.7098
▁h	-10.7098
原子力	-10.7099
両親	-10.71
自身が	-10.71
ねばならぬ	-10.7101
伯爵	-10.7102
あいさつ	-10.7103
EN	-10.7106
練	-10.7107
炭	-10.7109
いても	-10.7111
しかった	-10.7114
----------------	-10.7118
出された	-10.7122
前半	-10.7123
お前の	-10.7123
逆に	-10.7125
教え	-10.7126
名誉	-10.7126
行われる	-10.7129
届	-10.713
支給	-10.7131
笑顔	-10.7132
の眼	-10.7133
あっ	-10.7133
CM	-10.7135
プレゼント	-10.7138
、2019	-10.7139
RI	-10.7139
▁Data	-10.7141
の下で	-10.7142
正面	-10.7142
伝統	-10.7144
結果を	-10.7144
はじめた	-10.7144
▁He	-10.7145
rightarrow	-10.7145
プレゼンテーション	-10.7146
▁r	-10.7154
毎に	-10.7155
スキル	-10.7156
講習会	-10.7158
先行	-10.7159
パネル	-10.7159
ィ	-10.716
死んで	-10.716
社の	-10.716
▁平次は	-10.7162
本文	-10.7164
上野	-10.7165
▁何	-10.7166
町長	-10.7166
ツイート	-10.7168
してくれる	-10.717
ストーリー	-10.717
最終的に	-10.7171
に於ける	-10.7175
或	-10.7175
欲	-10.7175
の際に	-10.7177
彼に	-10.7179
▁たとえば	-10.7179
かける	-10.7181
原稿	-10.7181
ve	-10.7184
しっかりと	-10.7185
バイオ	-10.7186
逸	-10.7187
といえば	-10.7189
▁授業	-10.7189
の魅力	-10.7189
もう一つ	-10.719
▁Transformer	-10.719
our	-10.7191
が出て	-10.7192
手が	-10.7194
海洋	-10.7195
死に	-10.7197
八五郎	-10.72
に対しては	-10.72
ことによって	-10.7204
AM	-10.7205
わけです	-10.7208
皇	-10.7213
硬	-10.7213
はある	-10.7215
ran	-10.7216
っていました	-10.7218
-11	-10.7218
標	-10.7219
▁ex	-10.722
普通の	-10.7222
US	-10.7223
驚いた	-10.7228
暇	-10.7228
与えられた	-10.723
買い	-10.7232
ルート	-10.7233
ご意見	-10.7234
ちょう	-10.7237
良く	-10.7238
は非常に	-10.724
天下	-10.7242
ながらも	-10.7243
所蔵	-10.7247
厚生労働省	-10.7247
校長	-10.7249
認め	-10.7249
さを	-10.7251
点検	-10.7252
難しい	-10.7264
番目の	-10.727
前回	-10.7272
たこと	-10.7272
らの	-10.7274
毎週	-10.7277
観念	-10.7281
も多く	-10.7285
補助金	-10.7286
築	-10.7288
の山	-10.729
アクション	-10.7291
長さ	-10.7295
滞在	-10.7298
昨日	-10.7299
十分に	-10.7301
に合わせて	-10.7301
易	-10.7301
生活の	-10.7302
の対応	-10.7304
さういふ	-10.7305
ぷ	-10.7309
gen	-10.7312
ウル	-10.7312
NO	-10.7313
事に	-10.7314
おれは	-10.7315
モデルを	-10.7319
訓練データ	-10.7322
リオ	-10.7325
室の	-10.7327
確かに	-10.733
93	-10.733
ことになった	-10.733
見物	-10.7331
訪	-10.7332
フレ	-10.7332
鈴木	-10.7336
所の	-10.7336
街道	-10.7338
方へ	-10.7339
婆	-10.734
はあ	-10.7341
いったい	-10.7341
もいい	-10.7341
ますます	-10.7342
水道	-10.7344
begin	-10.7344
融合	-10.7345
戦闘	-10.7347
風が	-10.7348
ome	-10.7349
支え	-10.7351
終了後	-10.7351
ジャンル	-10.7352
高速	-10.7354
主演	-10.7357
豚	-10.7357
刑事	-10.7358
あげた	-10.7359
虚	-10.7361
に興味	-10.7361
の第	-10.7362
基本的な	-10.7362
の記事	-10.7364
世の中	-10.7365
歳で	-10.7366
双	-10.7366
のひとつ	-10.7371
ごく	-10.7372
丹	-10.7373
分離	-10.7373
団地	-10.7375
らい	-10.7376
カス	-10.7378
導	-10.7379
パフォーマンス	-10.7382
貝	-10.7382
付録	-10.7382
以上に	-10.7384
神の	-10.7385
下り	-10.7385
ひどい	-10.7387
▁this	-10.7387
▁◎	-10.7388
を与える	-10.739
制定	-10.7391
次回	-10.7393
皿	-10.7394
に変更	-10.7396
進歩	-10.7396
連載	-10.7397
古典	-10.7401
都市計画	-10.7404
の一環として	-10.7407
ちょ	-10.7411
収入	-10.7411
の可能性	-10.7412
勘	-10.7413
進化	-10.7414
母は	-10.7415
であっても	-10.7417
セント	-10.7417
の間で	-10.7417
▁(5)	-10.7419
分解	-10.7419
アッ	-10.7419
ねば	-10.7423
州の	-10.7424
を担当	-10.7424
qu	-10.7426
それほど	-10.7427
もっとも	-10.7427
プラットフォーム	-10.7429
尺	-10.743
じゅう	-10.7431
引っ	-10.7433
回目の	-10.7434
を取る	-10.7434
趣旨	-10.7434
▁子ども	-10.7434
我が	-10.7435
▁それでも	-10.7436
もん	-10.7437
アカウント	-10.7437
くり	-10.7442
だけではなく	-10.7442
を進め	-10.7443
締結	-10.7448
わい	-10.7449
が悪い	-10.745
▁詳しくは	-10.7451
kg	-10.7453
▁以上	-10.7453
お話し	-10.7454
すこと	-10.7455
千葉	-10.7458
していきます	-10.7458
の宿	-10.7459
手前	-10.746
意義	-10.7465
クト	-10.7466
解消	-10.7467
遂に	-10.7468
見えた	-10.7468
創作	-10.7469
済み	-10.7474
のであつた	-10.7474
願い	-10.7474
墨	-10.7478
▁国際	-10.7479
何とか	-10.7479
規模	-10.748
日曜	-10.748
をつけ	-10.748
は大	-10.7483
その頃	-10.7485
汗	-10.7487
作戦	-10.7489
貧	-10.7489
ならず	-10.749
の差	-10.749
翼	-10.7491
構	-10.7491
を行って	-10.7493
の有無	-10.7493
双方	-10.7495
られます	-10.7496
認知症	-10.7497
個人情報	-10.7502
まじ	-10.7503
tu	-10.7504
ou	-10.7505
メル	-10.7506
の新	-10.7506
騒ぎ	-10.7507
1988	-10.7508
揚げ	-10.751
国会	-10.751
2001	-10.7514
▁Information	-10.7515
品詞	-10.7515
gi	-10.7519
異常	-10.7519
卒業後	-10.752
散歩	-10.7521
所へ	-10.7521
ことがわかる	-10.7522
なす	-10.7522
技能	-10.7523
フランスの	-10.7524
換	-10.7526
させること	-10.7527
して下さい	-10.7528
加藤	-10.7533
律	-10.7534
認証	-10.7534
ゼロ	-10.7537
読む	-10.7538
tra	-10.7538
田中	-10.7542
等に	-10.7542
亡	-10.7543
發	-10.7548
もありません	-10.7551
ぱ	-10.7552
月まで	-10.7554
ton	-10.7554
入って	-10.7554
続け	-10.7555
辛	-10.7555
ソロ	-10.7557
を感じた	-10.7558
aki	-10.7558
すみ	-10.7562
ないで	-10.7565
柏	-10.7565
人々が	-10.7569
芝	-10.7569
fe	-10.7571
ip	-10.7571
皮膚	-10.7571
the	-10.7572
こころ	-10.7575
が異なる	-10.7576
塗	-10.7577
を取って	-10.758
tic	-10.7581
すり	-10.7585
▁イベント	-10.7586
パワー	-10.7587
ことば	-10.7588
文庫	-10.7589
コール	-10.7591
幼稚園	-10.7592
プラザ	-10.7593
祖父	-10.7593
らす	-10.7596
報酬	-10.7599
オール	-10.7602
カバー	-10.7603
にまで	-10.7604
▁近年	-10.7606
筒	-10.7607
太郎は	-10.7609
少しも	-10.7609
貸出	-10.761
▁Reader	-10.7613
亭	-10.7614
株式	-10.7614
全然	-10.7616
発表会	-10.7617
想定	-10.7619
▁2017.	-10.762
有り	-10.7622
を進める	-10.7624
と称	-10.7625
回収	-10.7626
教職員	-10.7627
立っている	-10.7629
することができます	-10.763
▁3.1	-10.7633
辰	-10.7634
ジュニア	-10.7637
ies	-10.7644
〇	-10.7647
ear	-10.7649
関係の	-10.7649
は約	-10.7651
上げる	-10.7652
秘	-10.7653
▁can	-10.7653
億円	-10.7653
休み	-10.7658
仙台	-10.7662
ふたり	-10.7675
ターン	-10.7675
祐	-10.7676
てくる	-10.7677
ガル	-10.7677
あんた	-10.7679
の上で	-10.7679
つぎ	-10.7684
時点	-10.7685
先端	-10.7693
実験では	-10.7693
求め	-10.7698
ウィン	-10.7698
di	-10.7701
を引	-10.7702
あげる	-10.7705
ぐる	-10.7707
磯	-10.7707
返事	-10.771
朱	-10.7711
著作権	-10.7711
東北大学	-10.7714
ial	-10.7715
八幡	-10.7716
のでしょう	-10.7717
紀元前	-10.7717
はあるまい	-10.7719
識	-10.7721
お前さん	-10.7722
甚だ	-10.7724
alpha	-10.7724
りした	-10.7725
ブラジル	-10.7726
希	-10.7726
種の	-10.7727
あんまり	-10.7729
と云った	-10.7729
他人	-10.773
月末	-10.7733
早期	-10.7736
鈴	-10.774
ap	-10.7742
多少	-10.7744
してから	-10.7744
▁learning	-10.7746
に入	-10.7749
’	-10.7753
帰った	-10.7753
だす	-10.7753
郷土	-10.7754
のいずれか	-10.7754
アルゴリズム	-10.7755
と考え	-10.7757
ってきた	-10.776
にあたって	-10.7763
電話番号	-10.7763
▁正	-10.7766
▁本日	-10.7767
を獲得した	-10.7767
心地	-10.7769
を読む	-10.777
の意見	-10.7771
家で	-10.7771
合って	-10.7773
危	-10.7777
っていない	-10.778
ありがとうございます	-10.7782
先頭	-10.7782
気の	-10.7783
往	-10.7785
フェスティバル	-10.7786
スタン	-10.7788
往来	-10.7788
の奥	-10.779
救急	-10.779
をつくる	-10.7792
はお	-10.7793
目が	-10.7794
▁Translation	-10.7797
んでいた	-10.7798
であるから	-10.7799
前提	-10.78
に比べて	-10.7801
でなく	-10.7804
免許	-10.7805
ときには	-10.7805
送り	-10.7807
軍事	-10.7809
JA	-10.781
1960	-10.7811
を高める	-10.7812
を行うこと	-10.7813
前期	-10.7813
年生の	-10.7814
素晴らしい	-10.7815
履修	-10.7816
さず	-10.7817
留守	-10.7818
レストラン	-10.7824
倫理	-10.7826
視察	-10.783
オペラ	-10.7831
あわせて	-10.7834
調理	-10.7836
パル	-10.7836
ニング	-10.7838
認められ	-10.784
つもり	-10.7842
かかった	-10.7844
本来	-10.7845
ワイ	-10.7848
てきました	-10.7848
とある	-10.785
視点	-10.7851
現在は	-10.7853
景色	-10.7854
じょう	-10.7854
▁つ	-10.7856
生れ	-10.786
労	-10.7861
ミッション	-10.7862
GA	-10.7864
成分	-10.7869
思考	-10.787
▁3.2	-10.7872
するような	-10.7872
日より	-10.7874
羊	-10.7874
方も	-10.7878
ポリ	-10.7879
スル	-10.7881
東海	-10.7881
▁これにより	-10.7889
誘	-10.7889
測	-10.7892
綿	-10.7892
そうして	-10.7894
▁Methods	-10.7902
の中を	-10.7903
示す	-10.7906
サークル	-10.7907
られていた	-10.7908
の課題	-10.7909
暴	-10.7909
信用	-10.791
今回は	-10.791
以外に	-10.7911
の通り	-10.7911
イギリスの	-10.7913
不可	-10.7914
のごとく	-10.7915
探し	-10.7915
燈	-10.7917
デュ	-10.7922
我々	-10.7922
心が	-10.7923
ヴェル	-10.7924
周年	-10.7925
ぼんやり	-10.7925
最適化	-10.7926
がなかった	-10.7926
ぐり	-10.7929
Fi	-10.7931
ようで	-10.7932
支援センター	-10.7934
ts	-10.7935
に見	-10.7936
あた	-10.7939
道の	-10.794
際の	-10.794
艇	-10.7942
近くの	-10.7943
駆け	-10.7943
実務	-10.7944
一般的に	-10.7944
弱い	-10.7944
之を	-10.7945
やろう	-10.7946
お楽しみ	-10.7946
爲	-10.7947
荷物	-10.7948
繁	-10.795
ねん	-10.7954
それとも	-10.7954
炉	-10.7956
審議	-10.7956
てい	-10.7958
が出	-10.7961
入口	-10.7967
維持	-10.7968
▁...	-10.7968
行こう	-10.7969
ニック	-10.797
▁私	-10.7973
解答	-10.7973
書く	-10.7975
スマートフォン	-10.7977
の裏	-10.7977
▁Di	-10.7979
ご紹介	-10.7981
イオン	-10.7982
渡辺	-10.7982
▁or	-10.7984
謝	-10.7984
こんだ	-10.7985
考え方	-10.799
▁お問い合わせ	-10.799
のあり方	-10.7992
佐藤	-10.7993
form	-10.7993
予定です	-10.7993
釣り	-10.7994
せられ	-10.7996
そうで	-10.7996
SS	-10.7998
国語	-10.8
保管	-10.8001
ヴォ	-10.8001
きみ	-10.8003
奉	-10.8003
いつまでも	-10.8004
幼	-10.8005
内容を	-10.8005
▁広報	-10.8008
作品の	-10.801
行っている	-10.8011
不動産	-10.8012
こうして	-10.8012
斯う	-10.8013
の改善	-10.8014
のではない	-10.8014
粗	-10.8017
地点	-10.8018
yu	-10.8018
文明	-10.8019
もなかった	-10.8021
ラス	-10.8023
の設定	-10.8023
餅	-10.8024
amp	-10.8024
寄付	-10.8026
ana	-10.8029
住み	-10.803
承	-10.8031
続き	-10.8031
扇	-10.8032
就	-10.8032
▁30	-10.8032
要件	-10.8033
に立ち	-10.8034
}=\	-10.8035
稀	-10.8036
だん	-10.8039
キュ	-10.8041
附属	-10.8042
さに	-10.8044
1999	-10.8045
)』	-10.8048
まっ	-10.8049
法の	-10.8049
狭	-10.8051
の原因	-10.8052
aligned	-10.8054
作った	-10.8057
▁21	-10.8057
閑	-10.806
研修会	-10.806
えない	-10.8061
持参	-10.8063
イヤ	-10.8065
心臓	-10.8065
まゝ	-10.8066
の前で	-10.8067
ブルー	-10.8068
の提供	-10.807
▁GPT	-10.807
あの人	-10.8071
が高く	-10.8071
叔父	-10.8071
厳しい	-10.8072
チャン	-10.8073
とび	-10.8073
ることは	-10.8076
植え	-10.8076
迎え	-10.8078
CE	-10.8079
思って	-10.8079
議長	-10.8083
苦しい	-10.8085
の大きさ	-10.8088
ようになり	-10.8088
の効果	-10.8088
まだまだ	-10.809
悟	-10.8096
ゲル	-10.8097
翁	-10.8098
を提供する	-10.81
通常の	-10.8101
切って	-10.8101
どん	-10.8102
ほかの	-10.8102
2-2	-10.8104
の人々	-10.8106
囲	-10.8107
三年	-10.8107
けい	-10.8107
再現	-10.8109
フレーム	-10.811
農家	-10.8111
▁University	-10.8113
の成果	-10.8113
one	-10.8116
呑	-10.8116
倒れ	-10.8116
based	-10.812
-22	-10.812
したため	-10.8121
岩手県	-10.8125
▁今後	-10.8125
送付	-10.8125
に関連する	-10.8126
航	-10.8127
てくれる	-10.8127
たけ	-10.8128
随	-10.8132
mer	-10.8132
に向かって	-10.8133
▁2)	-10.8135
心理学	-10.8135
手紙を	-10.8136
いただけます	-10.8136
笑った	-10.8137
まわり	-10.8137
震	-10.8138
両者	-10.814
食堂	-10.814
正解率	-10.8142
記入	-10.8143
1987	-10.8144
日更新	-10.8144
手当	-10.8145
程度の	-10.8145
息を	-10.8146
▁LLM	-10.8147
そのうち	-10.8148
世界に	-10.8151
者として	-10.8152
をお願いします	-10.8153
ミュージック	-10.8156
OR	-10.8159
日本で	-10.8159
を呼び	-10.8159
自慢	-10.816
を指す	-10.8162
フラン	-10.8163
がよく	-10.8163
兄さん	-10.8165
模様	-10.8165
▁Liu	-10.8166
行つて	-10.8167
本社	-10.8169
au	-10.817
そんなことを	-10.817
上がり	-10.8171
の外	-10.8173
被災	-10.8174
全身	-10.8175
背中	-10.8175
土木	-10.8176
ウン	-10.8178
紐	-10.8179
哲	-10.8181
学長	-10.8182
こともあり	-10.8186
申込書	-10.819
ゆっくり	-10.819
2002	-10.8191
の二	-10.8191
尽	-10.8193
情報提供	-10.8194
▁Mi	-10.8194
兩	-10.8195
所謂	-10.8196
重点	-10.8199
井上	-10.82
出産	-10.8202
溝	-10.8202
ターゲット	-10.8203
ないもの	-10.8204
ふく	-10.8205
眉	-10.8206
もう少し	-10.8207
道徳	-10.8207
なんでも	-10.8209
の息子	-10.821
脚本	-10.8212
此処	-10.8216
同盟	-10.8217
を意味する	-10.8218
隠れ	-10.8218
▁Ho	-10.822
順序	-10.8221
ens	-10.8221
聞か	-10.8221
の報告	-10.8222
を聞いて	-10.8223
麗	-10.8224
、2017	-10.8227
(15	-10.8227
でありました	-10.8233
ミュージアム	-10.8236
音が	-10.8237
▁2001	-10.824
憲法	-10.824
叩	-10.8243
抵抗	-10.8246
變	-10.8247
内容は	-10.8251
佐賀	-10.8253
あき	-10.8254
▁ああ	-10.8254
に就任	-10.8254
並んで	-10.8254
tsu	-10.8261
裂	-10.8261
の写真	-10.8262
学生が	-10.8262
がれ	-10.8265
拓	-10.8265
体を	-10.827
決勝	-10.8271
だけでは	-10.8271
だけでも	-10.8272
等は	-10.8273
独り	-10.8274
▁Ka	-10.8277
障子	-10.8278
個性	-10.8278
ku	-10.8279
コンセプト	-10.828
▁[12]	-10.8281
プル	-10.8281
若し	-10.8283
と述べた	-10.8283
引退	-10.8283
周り	-10.8284
信号	-10.8285
数を	-10.8286
ワイン	-10.8289
ベー	-10.8291
立地	-10.8294
どこへ	-10.8299
知れ	-10.83
腰を	-10.83
si	-10.8304
▁内容	-10.8305
ことができた	-10.8306
切った	-10.8306
とされている	-10.8308
直ぐ	-10.831
ることで	-10.8311
に出演	-10.8311
▁l	-10.8311
多分	-10.8315
遠慮	-10.8318
▁Ch	-10.8318
りする	-10.8319
たいへん	-10.8319
連中	-10.8322
葬	-10.8323
随分	-10.8327
変動	-10.8329
代目	-10.833
2-1	-10.8332
▁本稿では	-10.8334
徹底	-10.8335
の精度	-10.8336
返す	-10.8336
担	-10.834
心得	-10.834
ほんの	-10.8343
愚	-10.8344
体育館	-10.8344
利用する	-10.8348
であることを	-10.8349
しやすい	-10.835
掌	-10.8351
いらっしゃる	-10.8351
周年記念	-10.8352
肺	-10.8353
ただし	-10.8353
ことなど	-10.8354
妙に	-10.8354
殺し	-10.8357
がなく	-10.8357
収穫	-10.8358
ぶら	-10.8358
みたいな	-10.8359
自分自身	-10.8361
フィー	-10.8365
研究成果	-10.8365
公民館	-10.8366
ポスト	-10.8367
商売	-10.8368
91	-10.8369
それと	-10.8373
ァ	-10.8375
法令	-10.8375
所で	-10.8376
充実	-10.8376
のであるが	-10.8379
ショップ	-10.8381
漁業	-10.8381
上がって	-10.8382
NE	-10.8384
だより	-10.8385
恥	-10.8385
に出て	-10.8385
CR	-10.8385
CC	-10.8386
いると	-10.8388
を使う	-10.8388
ca	-10.839
防衛	-10.8391
(※	-10.8397
kan	-10.8399
のであろう	-10.8399
ブース	-10.8401
んですが	-10.8401
のところへ	-10.8402
十分な	-10.8405
の現状	-10.8407
火災	-10.8407
小児	-10.841
新しく	-10.8411
連邦	-10.8411
▁Empirical	-10.8412
諸君	-10.8413
ではあるが	-10.8415
広域	-10.8416
者と	-10.8421
消え	-10.8423
いきます	-10.8423
栽培	-10.8425
催	-10.8426
瓶	-10.8428
の導入	-10.8429
公立	-10.8429
に入った	-10.8431
▁Su	-10.8431
1990	-10.8433
出展	-10.8436
したところ	-10.8436
を求め	-10.8437
衛	-10.8437
ッタ	-10.8439
を始めた	-10.8439
なんだか	-10.8443
テイ	-10.8444
気味	-10.8447
流通	-10.8448
ていること	-10.8449
の葉	-10.845
保全	-10.845
pi	-10.8453
を使用して	-10.8454
を担う	-10.8456
▁主な	-10.8456
▁Chen	-10.8458
視聴	-10.8459
テー	-10.8461
冬の	-10.8465
▁word	-10.8465
狐	-10.8465
移籍	-10.8471
懸	-10.8471
つもりで	-10.8472
段階で	-10.8472
千代	-10.8472
の観点から	-10.8475
が大きく	-10.8475
高度	-10.8475
汚	-10.8477
あげて	-10.8478
出来事	-10.8482
Co	-10.8485
開館	-10.8485
ード	-10.8488
の変更	-10.8489
姉妹	-10.8491
を学び	-10.8493
麦	-10.8494
教養	-10.8495
おし	-10.8497
プール	-10.8498
驚き	-10.8499
面積	-10.85
になっています	-10.8501
DNA	-10.8504
のご	-10.8505
▁南	-10.8505
野郎	-10.8506
パート	-10.8506
▁}^{1}$	-10.8506
con	-10.851
ませんか	-10.8512
参加した	-10.8512
保育園	-10.8513
彼等	-10.8515
依	-10.8516
裁	-10.8516
風呂	-10.8518
なくなって	-10.8518
日本語の	-10.8519
京都府	-10.8523
方法で	-10.8523
締め	-10.8524
さすがに	-10.8524
しろ	-10.8524
食べる	-10.8525
んじ	-10.8526
呉	-10.8528
漢字	-10.8528
なければならぬ	-10.8528
わずか	-10.8528
琴	-10.8529
せぬ	-10.853
▁Wikipedia	-10.8531
▁Pa	-10.8533
宣	-10.8534
次世代	-10.8535
十八	-10.8539
▁学生	-10.8543
複雑	-10.8544
寺院	-10.8544
国際交流	-10.8545
動く	-10.8547
em	-10.8547
自らの	-10.8549
付ける	-10.855
の地	-10.8552
置き換え	-10.8554
イヤー	-10.8554
話が	-10.8555
役員	-10.8556
会合	-10.8556
両国	-10.8557
シェア	-10.8557
医師会	-10.8558
夏休み	-10.8559
乃	-10.8559
勇気	-10.8559
伝説	-10.856
わけで	-10.8562
に関する研究	-10.8563
わら	-10.8565
base	-10.8566
実証	-10.8566
app	-10.8566
もともと	-10.8573
の道	-10.8575
長野県	-10.8576
res	-10.8576
he	-10.8581
(12	-10.8583
ten	-10.8585
達は	-10.8586
をしました	-10.8587
津波	-10.8587
▁Action	-10.859
EL	-10.8591
時間は	-10.8592
-21	-10.8594
冒頭	-10.8594
オフィス	-10.8595
解散	-10.8595
診	-10.8596
頁	-10.8597
わけではない	-10.86
んだろう	-10.8601
を支える	-10.8602
来年	-10.8604
意欲	-10.8607
接触	-10.8608
選択肢	-10.8609
呼	-10.8612
IR	-10.8613
師匠	-10.8613
▁Wang	-10.8614
ますよ	-10.8615
ase	-10.8618
〔	-10.8621
文芸	-10.8622
が出る	-10.8623
心から	-10.8624
請	-10.8625
伝え	-10.8626
つま	-10.8626
の動き	-10.8627
のページ	-10.8627
要領	-10.863
学生の	-10.863
家へ	-10.8631
ボル	-10.8632
謎	-10.8632
入門	-10.8633
インドネシア	-10.8633
の多い	-10.8634
▁BLEU	-10.8634
期間中	-10.8636
を構築する	-10.8638
複雑な	-10.864
堅	-10.864
拠	-10.8643
廣	-10.8647
京都大学	-10.8648
マーケティング	-10.8648
拾	-10.8648
庁舎	-10.8649
小林	-10.8649
パンフレット	-10.865
監視	-10.865
▁これら	-10.8651
を守る	-10.8652
問題は	-10.8653
取る	-10.8653
啓発	-10.8655
受け入れ	-10.8657
ほん	-10.8661
https	-10.8661
のようなもの	-10.8668
してくれた	-10.8669
:20	-10.867
との間に	-10.8671
の歌	-10.8671
なんぞ	-10.8672
-12	-10.8673
プロデューサー	-10.8673
本当	-10.8674
述	-10.8674
かき	-10.8675
▁これから	-10.8675
障がい者	-10.8678
問題を	-10.8678
どうだ	-10.8678
▁For	-10.868
必ずしも	-10.868
多摩	-10.8681
～」	-10.8682
結び	-10.8682
るところ	-10.8682
篇	-10.8683
ない場合	-10.8684
▁森	-10.8686
学院	-10.8688
指針	-10.8688
転換	-10.8688
討	-10.869
はほとんど	-10.8692
待	-10.8693
学内	-10.8693
の記録	-10.8693
鼠	-10.8696
と比較して	-10.8697
年間の	-10.8698
難易度	-10.8699
パートナー	-10.87
政府の	-10.8701
なんと	-10.8701
メキシコ	-10.8702
ンズ	-10.8702
科学的	-10.8703
話した	-10.8703
居住	-10.8703
埼玉県	-10.8704
身分	-10.8705
エラー	-10.8709
基地	-10.871
恋愛	-10.8712
つて居る	-10.8713
人間は	-10.8713
の三	-10.8715
の中でも	-10.8715
潤	-10.8716
磨	-10.8716
あゝ	-10.8717
▁Da	-10.8717
交流会	-10.8718
復活	-10.8718
が最も	-10.872
肝	-10.872
発明	-10.8721
側面	-10.8722
動機	-10.8722
アク	-10.8724
に向って	-10.8727
からね	-10.8727
らせる	-10.8728
年以上	-10.8728
落ちて	-10.8733
使用した	-10.8735
継	-10.8735
お申込み	-10.8738
に帰	-10.8738
トイレ	-10.874
叫んだ	-10.8742
ことができ	-10.8744
に就いて	-10.8744
を描いた	-10.8745
の運営	-10.8746
クエリ	-10.8746
移行	-10.8747
アレ	-10.8749
▁元	-10.8751
が無い	-10.8758
煙草	-10.8758
▁これを	-10.876
ご参加	-10.876
言い換え	-10.8762
こん	-10.8762
ちやん	-10.8762
慣れ	-10.8763
づか	-10.8763
の両方	-10.8764
はなく	-10.8764
▁ぜひ	-10.8764
度の	-10.8765
の力	-10.8766
そっと	-10.8766
楽しめる	-10.8767
めん	-10.8767
っており	-10.8767
井戸	-10.8769
今夜	-10.877
スは	-10.8772
▁Workshop	-10.8775
RC	-10.8775
桑	-10.8776
に関する情報	-10.8778
の状態	-10.8783
製の	-10.8783
まっている	-10.8783
les	-10.8783
顔に	-10.8785
といっても	-10.8789
ノート	-10.8789
だつて	-10.8791
サロン	-10.8792
を発表	-10.8793
奥さん	-10.8798
KO	-10.88
残っている	-10.88
ug	-10.8802
仕方	-10.8806
スの	-10.8809
▁Na	-10.881
援助	-10.8811
1985	-10.8811
PA	-10.8811
憲	-10.8812
どこに	-10.8813
峠	-10.8813
駅前	-10.8815
の内	-10.8818
を実現	-10.8818
所得	-10.8819
▁Human	-10.8819
處	-10.882
イングランド	-10.882
IL	-10.8821
生まれた	-10.8823
DE	-10.8823
さらなる	-10.8824
途中で	-10.8826
招待	-10.8826
つかない	-10.8826
cc	-10.8827
を一	-10.8828
代表者	-10.8829
大使	-10.8829
開放	-10.8831
メイ	-10.8831
入札	-10.8834
メー	-10.8835
繰り返し	-10.8835
の部屋	-10.8836
マラソン	-10.884
かかり	-10.8841
国土交通省	-10.8841
おる	-10.8841
クロス	-10.8844
文節	-10.8845
問い合わせ先	-10.8848
副会長	-10.8849
0.5	-10.885
▁}}$	-10.8851
▁Ar	-10.8852
省略	-10.8854
マッチ	-10.8857
っても	-10.8858
、2021	-10.8858
鷹	-10.8858
国道	-10.8859
WEB	-10.8859
内科	-10.8859
に参加した	-10.8861
若手	-10.8861
クラスタ	-10.8863
その中に	-10.8867
彼等は	-10.8867
マリア	-10.8868
をご	-10.887
物理学	-10.8871
ござ	-10.8872
ぜん	-10.8872
の根	-10.8872
su	-10.8872
緒	-10.8874
:05	-10.8877
共同研究	-10.8877
▁not	-10.8877
因子	-10.8879
ダウン	-10.888
こま	-10.8882
SD	-10.8883
かみ	-10.8883
今も	-10.8884
(10	-10.8885
グランプリ	-10.8885
様の	-10.8885
軌道	-10.8887
抽選	-10.8887
夫の	-10.8888
東京の	-10.8889
出現	-10.8889
ゴン	-10.8889
の部分	-10.8895
まことに	-10.8895
sim	-10.8897
爪	-10.8897
ag	-10.8898
ということが	-10.8899
をとる	-10.89
挿入	-10.89
課程	-10.8902
の設置	-10.8903
蝶	-10.8905
涼	-10.8906
四国	-10.8907
下げ	-10.8908
ピア	-10.8911
シュー	-10.8912
にかかる	-10.8912
使う	-10.8912
おいしい	-10.8914
いただきます	-10.8916
アンド	-10.8916
在籍	-10.8917
こゝ	-10.8918
観点	-10.8919
階層	-10.8921
表紙	-10.8922
することにより	-10.8932
男女共同参画	-10.8932
年頃	-10.8935
っきり	-10.8938
アニメーション	-10.8938
ME	-10.8939
を投げ	-10.8939
あや	-10.894
十六	-10.8943
くらし	-10.8944
と思っている	-10.895
お申し込み	-10.8953
走る	-10.8954
ヤン	-10.8956
疑い	-10.8959
喧嘩	-10.896
自治	-10.896
肉体	-10.8961
ak	-10.8964
傳	-10.8965
原理	-10.8965
▁######	-10.8966
できている	-10.8969
宛	-10.897
無論	-10.8974
の重要性	-10.8975
に違いない	-10.8976
がわ	-10.8977
福岡県	-10.8978
ワード	-10.8978
▁福島県	-10.8978
発症	-10.8979
ブルク	-10.8979
思ふ	-10.8981
小型	-10.8981
岐阜県	-10.8982
たまま	-10.8982
君に	-10.8983
コロ	-10.8983
を振り	-10.8984
}{	-10.8986
狭い	-10.8986
石川	-10.8987
を示している	-10.8988
中国語	-10.8988
同様に	-10.899
互	-10.8991
があること	-10.8991
既	-10.8991
創立	-10.8993
ll	-10.8994
を使用し	-10.8996
ホン	-10.8996
知りたい	-10.8998
カット	-10.9001
此方	-10.9001
もちろん	-10.9001
ビール	-10.9002
渡し	-10.9003
できるだけ	-10.9004
膳	-10.9005
の詳細	-10.9006
馬の	-10.9007
漂	-10.9008
のではなく	-10.9009
頑張って	-10.901
利用できる	-10.9011
溶	-10.9011
以	-10.9012
シャン	-10.9013
われる	-10.9014
課税	-10.9015
技術者	-10.9019
巡	-10.9021
詳しい	-10.9021
old	-10.9021
巧	-10.9022
てくれた	-10.9023
IA	-10.9025
じゃあ	-10.9026
作られた	-10.9026
rd	-10.9028
ニン	-10.9028
年代に	-10.9029
ナル	-10.903
威	-10.9031
LE	-10.9031
やかに	-10.9033
の充実	-10.9033
1986	-10.9034
ウェ	-10.9035
AP	-10.9036
大学大学院	-10.9037
を入れて	-10.9038
アドバイス	-10.9038
茨城県	-10.9038
つつある	-10.9038
付いて	-10.904
▁こちら	-10.9041
の準備	-10.9042
する事	-10.9045
アイルランド	-10.9045
本作の	-10.9047
事象	-10.9047
イス	-10.9048
の増加	-10.9051
いただける	-10.9052
的で	-10.9053
)\	-10.9053
変わり	-10.9055
線の	-10.9055
唇	-10.9056
存在する	-10.9056
を出す	-10.9056
啓	-10.9057
と思つた	-10.9058
歌手	-10.9059
お願いします	-10.906
}=	-10.9061
対象となる	-10.9061
したとき	-10.9061
怒り	-10.9063
障がい	-10.9064
頃に	-10.9066
に掲載	-10.9067
どれ	-10.9067
相続	-10.9069
▁fine	-10.9069
ちら	-10.907
月より	-10.9076
衛星	-10.9079
開業	-10.9079
裸	-10.9079
局長	-10.9079
120	-10.908
▁こう	-10.9081
社会人	-10.9081
ite	-10.9081
三重	-10.9081
覆	-10.9082
(4	-10.9085
明るく	-10.9085
みなさま	-10.9086
半ば	-10.9087
ほんとに	-10.9087
を開始した	-10.909
str	-10.9095
十一	-10.9095
の経験	-10.9097
付いた	-10.9098
の夜	-10.9098
行きました	-10.9098
によっては	-10.9099
お話を	-10.91
の検討	-10.9101
かぶ	-10.9102
奪	-10.9102
にでも	-10.9103
▁Zhang	-10.9105
緩和	-10.9107
LA	-10.9108
馬車	-10.9108
ケイ	-10.911
ight	-10.911
ところは	-10.911
あいつ	-10.9111
などについて	-10.9112
▁参加	-10.9114
我々は	-10.9114
eco	-10.9116
しかない	-10.9116
ママ	-10.9116
及	-10.9117
數	-10.9117
外交	-10.9117
エア	-10.9118
同士の	-10.9118
随時	-10.9119
za	-10.912
彼女が	-10.912
アド	-10.9122
循環	-10.9123
根本	-10.9127
エンコーダ	-10.9128
という意味	-10.9128
▁Mar	-10.9128
答えた	-10.9128
▁このため	-10.9129
者である	-10.9131
市内の	-10.9131
大和	-10.9133
を読んで	-10.9134
最新の	-10.9134
憂	-10.9134
theta	-10.9135
情報が	-10.9136
ldots	-10.9137
何度も	-10.9138
をテーマに	-10.9139
bert	-10.9139
最新	-10.914
PS	-10.914
書かれた	-10.9141
進路	-10.9145
総務	-10.9145
告	-10.9145
四郎	-10.9148
鉢	-10.9149
▁ポジションは	-10.9151
▁50	-10.9153
続ける	-10.9154
入れて	-10.9154
早速	-10.9156
а	-10.9157
大賞	-10.9159
臭	-10.9159
の生成	-10.916
笹	-10.916
ノード	-10.9161
復帰	-10.9162
中部	-10.9163
解放	-10.9165
統	-10.9166
充	-10.9168
▁県	-10.9172
م	-10.9173
呪	-10.9173
JP	-10.9173
フー	-10.9176
簡単な	-10.9176
季	-10.9178
レベルの	-10.9178
決心	-10.9181
由来	-10.9181
に加入	-10.9181
Volume	-10.9183
د	-10.9183
どころ	-10.9183
る事	-10.9184
ようである	-10.9186
ここへ	-10.9186
の値	-10.919
ES	-10.9192
が出た	-10.9192
崖	-10.9193
悲し	-10.9194
くだ	-10.9194
大事	-10.9195
を読み	-10.9197
刊行	-10.9197
店の	-10.9198
2-3	-10.9198
烏	-10.9198
を設け	-10.9199
の学生	-10.9199
に位置し	-10.92
公開された	-10.9203
杖	-10.9203
に行って	-10.9203
銘	-10.9205
になること	-10.9206
の分析	-10.9208
録音	-10.9209
につきましては	-10.921
云つた	-10.9212
2008	-10.9216
伝える	-10.922
ますので	-10.922
色々	-10.9221
のみなさん	-10.9223
一般社団法人	-10.9223
知見	-10.9224
外科	-10.9227
フランス語	-10.9231
放射線	-10.9234
甲斐	-10.9234
灰	-10.9236
しようとする	-10.9239
被害者	-10.924
行か	-10.9241
だと思う	-10.9243
就任	-10.9244
-17	-10.9244
対処	-10.9244
ぶん	-10.9245
商人	-10.9245
相対	-10.9246
経緯	-10.9248
▁dataset	-10.9248
他にも	-10.9251
ure	-10.9252
ことと	-10.9254
皇帝	-10.9255
作品は	-10.9255
徹	-10.9255
過ぎて	-10.9257
に対応	-10.9263
ex	-10.9263
同様の	-10.9264
観客	-10.9265
を紹介	-10.9267
抑制	-10.9269
ばた	-10.9269
の調査	-10.9269
▁[13]	-10.9275
に至る	-10.9276
個々の	-10.9276
の方で	-10.9277
粒	-10.9279
迷惑	-10.9279
届け	-10.928
入場	-10.928
二度	-10.9282
焼け	-10.9283
ネー	-10.9287
何とも	-10.929
は決して	-10.9291
私達	-10.9292
秋田	-10.9292
思われ	-10.9293
住居	-10.9294
剥	-10.9294
鋼	-10.9295
cl	-10.9296
東部	-10.9299
連合会	-10.9303
ほかに	-10.9304
腸	-10.9306
互いに	-10.9306
▁ここでは	-10.9307
凝	-10.9307
ノン	-10.9307
女の子	-10.9308
十三	-10.9308
sen	-10.9309
当館	-10.9311
れている	-10.9312
コーヒー	-10.9314
現代の	-10.9314
萬	-10.9314
少なく	-10.9314
金の	-10.9316
ポーランド	-10.9321
して来た	-10.9323
▁八	-10.9324
りして	-10.9325
逢	-10.9326
天然	-10.9328
周囲	-10.9328
これだけ	-10.9329
錦	-10.9333
ようになりました	-10.9336
▁節	-10.9338
選出	-10.9339
偏	-10.934
ネル	-10.9344
新宿	-10.9345
中国の	-10.9347
▁みんな	-10.935
そうか	-10.935
▁二人は	-10.9351
▁Tweet	-10.9352
を高め	-10.9352
が大きい	-10.9353
話して	-10.9353
後ろ	-10.9355
ここまで	-10.9355
洞	-10.9356
大抵	-10.9356
三つ	-10.9359
tuning	-10.9359
一定	-10.9359
サイド	-10.9361
マスター	-10.9365
700	-10.9366
農村	-10.9367
チュー	-10.9367
を基に	-10.9368
趣	-10.9369
珠	-10.9371
話は	-10.9372
淡	-10.9374
▁Th	-10.9374
への対応	-10.9375
を中心とした	-10.9377
ストレス	-10.9381
1997	-10.9386
幕府	-10.9389
何時	-10.939
歌詞	-10.9391
的なもの	-10.9392
有名	-10.9393
刊	-10.9393
ティング	-10.9395
禅	-10.9396
去る	-10.9397
真似	-10.9397
暑	-10.9399
の比較	-10.9399
複合	-10.9399
選抜	-10.94
行われている	-10.9404
自体	-10.9404
えん	-10.9405
の出力	-10.9406
1998	-10.941
インフラ	-10.9411
の構造	-10.9412
たくない	-10.9414
低く	-10.9415
これからも	-10.9416
同士	-10.9416
飼	-10.9417
在宅	-10.9419
必須	-10.9419
朝日	-10.9419
できるよう	-10.9421
▁English	-10.9421
意外	-10.9422
今朝	-10.9423
てくれ	-10.9423
ませう	-10.9424
単語分割	-10.9424
西部	-10.9425
ر	-10.9428
議案	-10.943
カリキュラム	-10.943
入手	-10.9433
小僧	-10.9433
黄金	-10.9434
の機能	-10.9435
▁was	-10.9436
始まり	-10.9438
大丈夫	-10.9438
つる	-10.9439
卑	-10.9441
学研究科	-10.9441
の確保	-10.9443
の範囲	-10.9444
金融機関	-10.9446
mp	-10.9448
朗	-10.9448
飾り	-10.9449
斬	-10.9449
ung	-10.945
解明	-10.9454
取扱	-10.9455
るのが	-10.9456
言つた	-10.9458
内線	-10.9459
フレーズ	-10.9459
学習者	-10.9461
役人	-10.9461
ものとして	-10.9461
そもそも	-10.9461
癒	-10.9461
を実施しました	-10.9464
騒	-10.9465
初めての	-10.9465
世紀の	-10.9466
傍聴	-10.9467
鎖	-10.9469
急いで	-10.9469
出で	-10.9469
ーム	-10.9469
▁週刊	-10.9472
▁市民	-10.9472
将来の	-10.9473
あらかじめ	-10.9473
花の	-10.9476
軽く	-10.9477
1984	-10.9481
▁大阪	-10.9481
▁他の	-10.9483
新人	-10.9484
に努め	-10.9484
(16	-10.9485
に相違ない	-10.9486
巨	-10.9486
支援事業	-10.9487
ドラ	-10.9488
ラル	-10.9488
郵便	-10.949
致します	-10.949
年以降	-10.9491
並びに	-10.9492
デジタル化	-10.9492
▁☆	-10.9493
-15	-10.9494
ice	-10.9495
業績	-10.9496
ドロ	-10.9496
▁more	-10.9497
当社	-10.9497
免疫	-10.9498
結晶	-10.95
いいえ	-10.95
city	-10.9501
日付	-10.9503
上演	-10.9504
寮	-10.9505
那	-10.9505
っぽ	-10.9506
二重	-10.9509
▁TOP	-10.9512
全般	-10.9513
直後	-10.9514
籍	-10.9517
自然の	-10.9518
の時間	-10.952
仏教	-10.9522
槍	-10.9522
歩いた	-10.9523
–	-10.9523
ドイツの	-10.9524
ッカー	-10.9524
指名	-10.9525
▁All	-10.9527
出張	-10.9528
かせ	-10.9529
珍	-10.9529
アメリカ合衆国の	-10.953
替	-10.9531
がお	-10.9531
スポット	-10.9532
▁di	-10.9532
上がる	-10.9533
ケル	-10.9534
慎	-10.9536
経路	-10.9538
ユース	-10.9541
のでございます	-10.9541
細君	-10.9542
重い	-10.9546
一行	-10.955
▁Research	-10.9551
自然言語処理	-10.9554
一切	-10.9559
つゝ	-10.9559
まない	-10.956
つくり	-10.9563
パラリンピック	-10.9563
▁節で	-10.9563
回転	-10.9564
緩	-10.9566
只	-10.9566
桂	-10.9567
リード	-10.9567
ff	-10.9569
展望	-10.957
tr	-10.9571
よろ	-10.9572
iz	-10.9574
酷	-10.9578
ファイ	-10.9578
食い	-10.9579
を押し	-10.9579
テロ	-10.9579
実行委員会	-10.958
著書	-10.958
ON	-10.9581
クー	-10.9581
部屋の	-10.9581
—	-10.9582
われわれ	-10.9583
NS	-10.9586
いかなる	-10.9586
ようとした	-10.9587
美しく	-10.9587
のことで	-10.9587
(7	-10.9589
閉じ	-10.9589
▁おわりに	-10.959
hen	-10.9591
これからの	-10.9592
徐々に	-10.9594
ますと	-10.9598
‐	-10.9599
コス	-10.9599
顧客	-10.96
香港	-10.96
うえで	-10.9601
初期の	-10.9603
真っ	-10.9604
DC	-10.9608
本校	-10.9608
物理	-10.961
空に	-10.9615
ませぬ	-10.9616
の手法	-10.9616
ミル	-10.9617
ec	-10.9617
ick	-10.9617
アイドル	-10.9617
をしながら	-10.9618
実施する	-10.962
堤	-10.9621
子に	-10.9622
セイ	-10.9623
▁まだ	-10.9625
雪の	-10.9626
port	-10.9626
確定	-10.9627
▁Papers	-10.9628
▁23	-10.9628
助手	-10.963
ほんとうに	-10.963
裁判所	-10.963
レッ	-10.9632
のこ	-10.9636
グレ	-10.9637
いな	-10.9638
さんも	-10.9642
▁6.	-10.9642
▁'	-10.9645
状態で	-10.9645
▁Lo	-10.9647
と思つて	-10.9648
特別な	-10.9648
為に	-10.9648
すく	-10.9654
天気	-10.9655
損失	-10.9656
くも	-10.9657
家が	-10.9658
aku	-10.9664
ao	-10.9665
経営者	-10.9669
べし	-10.9669
標本	-10.9672
出てくる	-10.9672
高さ	-10.9673
悪く	-10.9675
Wi	-10.9679
面を	-10.9684
克	-10.9685
▁春	-10.9685
毎月	-10.9686
3-1	-10.9687
語る	-10.9687
:15	-10.9688
書物	-10.9691
胸を	-10.9691
まさか	-10.9696
を認め	-10.9698
▁経団連タイムス	-10.9698
静かな	-10.9699
新潟県	-10.9701
率は	-10.9704
クイズ	-10.9706
蘇	-10.9707
トラブル	-10.9707
起業	-10.9709
逃	-10.9712
過ぎた	-10.9713
脈	-10.9713
自然に	-10.9714
形式で	-10.9715
意見を	-10.9716
残る	-10.9716
ファクス	-10.9717
ナイト	-10.9719
なりません	-10.9719
地方の	-10.9724
と言える	-10.9724
主人の	-10.9724
が可能	-10.9725
出願	-10.9726
順に	-10.9732
落ちた	-10.9733
800	-10.9735
二年	-10.9735
新型コロナウイルス	-10.9735
ロール	-10.9735
ウェル	-10.9737
発現	-10.9738
視覚	-10.9738
なんの	-10.9739
うな	-10.974
-23	-10.974
胃	-10.9741
日頃	-10.9742
があると	-10.9743
ことや	-10.9743
されてきた	-10.9745
伺	-10.9747
資	-10.9749
ی	-10.9752
かさ	-10.9752
▁Lu	-10.9753
なるべく	-10.9754
ish	-10.9757
すき	-10.9757
燃料	-10.9758
栃木県	-10.976
ことができました	-10.9762
ボード	-10.9764
付けた	-10.9765
本当の	-10.9765
長男	-10.9766
NP	-10.9767
▁co	-10.977
続けて	-10.9772
って来る	-10.9773
▁neural	-10.9773
崩れ	-10.9773
を体験	-10.9773
熊本	-10.9774
某	-10.9777
行い	-10.9778
▁学習	-10.9778
結果は	-10.978
BC	-10.9782
窓から	-10.9783
自分たち	-10.9783
疑似	-10.9786
高原	-10.9788
広島県	-10.9788
近くに	-10.9791
を見せ	-10.9791
埋	-10.9791
学期	-10.9791
惡	-10.9792
太平洋	-10.9794
俳句	-10.9796
悦	-10.9797
wa	-10.9798
ポール	-10.9801
警	-10.9803
が開催されました	-10.9803
ろうと	-10.9804
光景	-10.9805
先ず	-10.9805
縫	-10.981
唱	-10.981
耕	-10.9811
大阪市	-10.9811
国境	-10.9811
本研究では	-10.9813
かして	-10.9814
lan	-10.9815
渋	-10.9815
▁わたしは	-10.9815
とはいえ	-10.9817
財務	-10.9819
生涯学習	-10.9819
育児	-10.9819
を記録した	-10.982
▁明治	-10.982
1995	-10.9823
使用される	-10.9823
サポーター	-10.9823
なければなりません	-10.9824
ミング	-10.9824
暴力	-10.9827
よろしい	-10.9829
の実現	-10.983
の基本	-10.9832
斜	-10.9833
▁企業	-10.9834
慾	-10.9838
ICT	-10.9839
ある程度	-10.9842
ブレ	-10.9842
もらった	-10.9844
を提出	-10.9845
退職	-10.9846
過ごし	-10.9847
車の	-10.9848
経費	-10.9849
act	-10.985
会津	-10.9854
再開	-10.9858
もらって	-10.9859
含まれ	-10.986
十七	-10.9861
蓄積	-10.9861
払い	-10.9863
場所に	-10.9863
QA	-10.9865
▁次の	-10.9866
持つ	-10.9868
するのが	-10.9868
死骸	-10.9869
の強化	-10.9871
1980	-10.9873
稽古	-10.9873
々の	-10.9875
の全	-10.9876
シル	-10.9876
大手	-10.9877
発売された	-10.9877
を考え	-10.9879
と思っていた	-10.988
腐	-10.9883
計測	-10.9883
外国語	-10.9884
かれる	-10.9885
良かった	-10.9886
婚	-10.989
▁今日	-10.9895
集落	-10.9897
菅	-10.9897
▁Lee	-10.9898
を目指し	-10.99
全日本	-10.99
妊娠	-10.9901
▁定員	-10.9903
丁寧に	-10.9903
ならびに	-10.9907
を考慮した	-10.9907
たとき	-10.9911
▁Chapter	-10.9913
▁京都	-10.9914
と思っています	-10.9916
NI	-10.9917
感じた	-10.9919
抱	-10.9923
覚悟	-10.9926
大陸	-10.9932
所長	-10.9932
分散	-10.9932
自分も	-10.9933
-18	-10.9934
激しい	-10.9934
車で	-10.9934
血液	-10.9934
ってしまう	-10.9935
白く	-10.9936
に立って	-10.9938
の時代	-10.9939
の元	-10.9943
占	-10.9945
フィリピン	-10.9947
セキュリティ	-10.9948
過ぎる	-10.9948
に該当する	-10.9949
各自	-10.995
柿	-10.995
たちに	-10.995
▁which	-10.9953
▁みなさん	-10.9953
痛み	-10.9953
流し	-10.9955
さも	-10.9955
の再	-10.9956
の会	-10.9956
かげ	-10.9957
來る	-10.9958
III	-10.9959
どうする	-10.9962
世は	-10.9965
苗	-10.9966
別紙	-10.9967
参戦	-10.9967
資料の	-10.997
一家	-10.9971
といえる	-10.9977
絞	-10.9978
博士は	-10.9979
▁以下の	-10.9979
ぺ	-10.998
成り	-10.998
使われる	-10.998
残念	-10.9982
▁併し	-10.9982
嘆	-10.9982
▁同じ	-10.9984
▁Tr	-10.9984
0.1	-10.9985
長官	-10.9985
無く	-10.9988
いくつか	-10.999
前年	-10.9994
を書いて	-10.9994
15:00	-10.9994
してある	-10.9995
▁資料	-10.9996
感じる	-10.9996
げん	-10.9997
がね	-10.9997
自立	-10.9998
警戒	-10.9998
お世話	-11
することも	-11
小野	-11
は無い	-11
▁Evaluation	-11.0002
文部科学省	-11.0003
殺害	-11.0006
お届け	-11.0006
5%	-11.0007
門の	-11.0009
プラス	-11.0011
翔	-11.0018
盆	-11.0021
:45	-11.0024
近頃	-11.0026
んだが	-11.0026
▁y	-11.0026
きめ	-11.0027
限界	-11.0027
新潟市	-11.0028
あとで	-11.003
まさ	-11.0031
、2016	-11.0031
▁2016.	-11.0031
壊	-11.0032
小川	-11.0035
そのとき	-11.0037
垂れ	-11.0038
銀座	-11.0041
資料を	-11.0042
さうな	-11.0043
無事	-11.0046
今度	-11.0046
いていた	-11.0047
を打ち	-11.0047
正直	-11.0048
て行く	-11.0051
PE	-11.0052
管理者	-11.0053
日本代表	-11.0055
採択	-11.0056
▁全国	-11.0059
hy	-11.0061
石の	-11.0061
▁24	-11.0062
コンクール	-11.0062
せられる	-11.0063
夜間	-11.0063
発足	-11.0066
顧問	-11.0066
なみ	-11.0067
看板	-11.0067
なれ	-11.0067
弦	-11.0069
静岡	-11.007
▁種類の	-11.0072
傘	-11.0074
してる	-11.0075
わかり	-11.0077
紛争	-11.0077
しみ	-11.008
再建	-11.0081
当局	-11.0081
躍	-11.0082
CT	-11.0082
作詞	-11.0082
に見える	-11.0083
今では	-11.0084
1983	-11.0086
▁最終更新日	-11.0091
重要である	-11.0092
がけ	-11.0093
使用する	-11.0094
保持	-11.0095
私たちは	-11.0095
と言い	-11.0095
ウム	-11.0096
を使い	-11.0096
▁カテゴリー	-11.0097
続いた	-11.0098
真理	-11.0099
音を	-11.0103
芋	-11.0104
に乗って	-11.0104
ストラ	-11.0106
相談窓口	-11.0107
が生じ	-11.0107
彼らは	-11.0108
合せ	-11.0109
マニュアル	-11.0113
量の	-11.0114
▁本学	-11.0114
笑って	-11.0115
Twitter	-11.0118
軍は	-11.0119
▁続きを読む	-11.0119
踊	-11.0122
近隣	-11.0122
政治的	-11.0123
▁投稿者	-11.0124
かれて	-11.0125
BA	-11.0125
喜んで	-11.0127
ーク	-11.013
チームの	-11.0131
に過ぎない	-11.0132
誠に	-11.0133
ガラ	-11.0133
/1	-11.0134
侯	-11.0134
入社	-11.0134
行います	-11.0137
よりは	-11.0139
暮れ	-11.014
旬	-11.0142
めき	-11.0144
衝突	-11.0147
如何	-11.0148
医薬品	-11.015
注文	-11.0151
In	-11.0153
を感じる	-11.0154
の協力	-11.0157
おこ	-11.0157
なります	-11.0158
懇談会	-11.0159
ございます	-11.0159
よこ	-11.0159
兄の	-11.0161
はこちらから	-11.0163
決意	-11.0163
ヴァル	-11.0164
揺	-11.0164
コラム	-11.0164
戦い	-11.0165
▁第一	-11.0165
武蔵	-11.0165
メリット	-11.0165
方法を	-11.0166
?』	-11.0167
河原	-11.0167
となっており	-11.017
▁本文	-11.0171
いいました	-11.0177
スパ	-11.0178
原則として	-11.0178
芸能	-11.0178
ものづくり	-11.0181
べく	-11.0181
探偵	-11.0182
発電	-11.0183
情報発信	-11.0183
ビュー	-11.0185
陳	-11.0186
場で	-11.0187
焦	-11.0188
然として	-11.0189
込め	-11.0192
ゴルフ	-11.0193
ラボ	-11.0194
に取り	-11.0194
の戦い	-11.0195
ポケット	-11.0197
に応じた	-11.0198
寂	-11.0199
いけません	-11.0203
ポート	-11.0203
大衆	-11.0203
ドリ	-11.0204
せない	-11.0205
はならない	-11.0206
廻り	-11.0207
からです	-11.0207
審	-11.0207
拒否	-11.0209
1996	-11.021
発表された	-11.0211
個の	-11.0214
叫び	-11.0215
わかった	-11.0216
妻の	-11.0218
見えて	-11.0221
主題	-11.0222
▁Sch	-11.0225
で開催	-11.0227
回り	-11.0228
▁花	-11.0228
の底	-11.023
化し	-11.0231
が低い	-11.0231
面に	-11.0232
nt	-11.0233
登山	-11.0234
と考えられている	-11.0235
たれ	-11.0235
専	-11.0236
▁を用いて	-11.0236
▁ここ	-11.0237
ヒット	-11.0237
具体的に	-11.0238
ن	-11.0238
存在しない	-11.0242
▁実際	-11.0245
除去	-11.0245
年金	-11.0245
大阪府	-11.0245
03-3	-11.0247
競	-11.0248
ペル	-11.0248
、2022	-11.0249
やれ	-11.0252
帆	-11.0252
を描く	-11.0254
爆発	-11.0254
行くと	-11.0255
可視化	-11.0256
仕方がない	-11.0256
暑い	-11.0256
条第	-11.0257
マルチ	-11.0257
梨	-11.0257
あさ	-11.0257
混乱	-11.0258
の末	-11.0261
プレイヤー	-11.0261
▁経団連	-11.0262
一生懸命	-11.0263
ウォー	-11.0264
情報処理	-11.0265
貨物	-11.0266
首都	-11.0267
につれて	-11.0269
俺の	-11.027
台の	-11.0272
特徴量	-11.0274
yama	-11.0277
年度から	-11.0278
ドイツ語	-11.0282
授与	-11.0282
ウィリアム	-11.0284
じゃありませんか	-11.0285
ーナ	-11.0285
も多い	-11.0285
の高さ	-11.0286
コロナ	-11.0287
発音	-11.0288
ek	-11.029
うまい	-11.0293
うて	-11.0295
ヂ	-11.0296
卿	-11.0297
の理解	-11.0297
ご連絡	-11.0297
云	-11.0297
見解	-11.0298
幻	-11.03
余裕	-11.03
武器	-11.0301
推測	-11.0301
と考えた	-11.0303
ることを	-11.0303
1982	-11.0304
藤原	-11.0305
先生に	-11.0307
せよ	-11.0307
文句	-11.0308
のホームページ	-11.0308
理念	-11.0311
ばかりでなく	-11.0311
襟	-11.0311
寄って	-11.0312
鹿児島	-11.0316
▁当時	-11.0316
どんどん	-11.0317
モデルが	-11.0318
スウェーデン	-11.0318
1-2	-11.0319
うと	-11.0319
いながら	-11.032
対面	-11.0321
誰でも	-11.0324
ありがとう	-11.0325
▁又	-11.0327
賞を受賞	-11.0328
国民の	-11.0329
バリ	-11.0329
ated	-11.0332
右の	-11.0334
ブラック	-11.0334
led	-11.0335
兵士	-11.0336
わざと	-11.0336
に向け	-11.0336
収集した	-11.0336
1972	-11.0337
雀	-11.0339
りません	-11.0343
直線	-11.0344
もつと	-11.0345
けば	-11.0346
簡単	-11.0347
ブー	-11.0348
悪魔	-11.0349
とこ	-11.0349
をはじめとする	-11.0349
位に	-11.035
事も	-11.0351
誘導	-11.0353
の知識	-11.0354
とめ	-11.0354
話者	-11.0354
を切り	-11.0355
紳士	-11.0357
ことが出来る	-11.0362
今後も	-11.0363
と考えている	-11.0363
を含め	-11.0363
来ると	-11.0367
が含まれる	-11.0367
流れる	-11.0372
上って	-11.0374
毎回	-11.0374
ルス	-11.0378
近づいて	-11.0378
事で	-11.0378
勝手	-11.0378
少しでも	-11.0379
の発生	-11.038
々に	-11.0381
いざ	-11.0381
燃	-11.0382
まれて	-11.0382
するよう	-11.0384
未満	-11.0386
食物	-11.0386
はそれぞれ	-11.0388
坪	-11.0391
ではなくて	-11.0391
に似た	-11.0392
が増え	-11.0393
▁值	-11.0394
深夜	-11.0395
GI	-11.0395
不可能	-11.0399
きちんと	-11.0399
フォード	-11.04
革新	-11.04
海上	-11.04
以外	-11.0401
▁現在の	-11.0402
部屋に	-11.0402
胡	-11.0403
重み	-11.0404
十年	-11.0405
OK	-11.041
子供が	-11.0411
五月	-11.0413
こい	-11.0413
感心	-11.0413
した結果	-11.0413
▁1999	-11.0415
知られている	-11.0417
web	-11.0417
滑	-11.042
BS	-11.0421
DI	-11.0422
点を	-11.0423
やすく	-11.0424
結構	-11.0424
科学者	-11.0424
輩	-11.0427
▁日本の	-11.0429
▁Ge	-11.0429
後から	-11.0431
歯科	-11.0432
十四	-11.0433
モンゴル	-11.0433
の一つである	-11.0434
殻	-11.0437
清掃	-11.0437
岐阜	-11.0438
FA	-11.0439
身近な	-11.0439
哉	-11.044
共催	-11.0441
のとおり	-11.0441
ができ	-11.0442
を参考に	-11.0445
お知らせします	-11.0448
室に	-11.0448
生え	-11.0451
の販売	-11.0452
▁[14]	-11.0452
青少年	-11.0453
食べて	-11.0455
」,「	-11.0455
今でも	-11.0455
面倒	-11.0455
この時	-11.0457
賊	-11.0458
抽出した	-11.0458
ore	-11.0458
ust	-11.0461
かま	-11.0461
ヘン	-11.0462
からず	-11.0464
十九	-11.0465
全国の	-11.0467
伸子	-11.0467
犯	-11.0469
式の	-11.047
猪	-11.047
湿	-11.0471
変わって	-11.0472
開示	-11.0472
大幅に	-11.0472
割り	-11.0473
てん	-11.0473
教えて	-11.0473
怖	-11.0474
を書き	-11.0475
受信	-11.0477
した上で	-11.0479
眼が	-11.048
頂	-11.0482
へば	-11.0483
あなたに	-11.0484
ステーション	-11.0485
池田	-11.0485
男爵	-11.0486
立大学	-11.0487
ting	-11.0488
アム	-11.0489
沖縄県	-11.0489
後には	-11.049
潜在	-11.049
到着	-11.0491
UD	-11.0491
やさしい	-11.0491
署名	-11.0492
』、『	-11.0494
TR	-11.0495
の大きな	-11.0501
果て	-11.0501
はしない	-11.0506
大事な	-11.0506
ボックス	-11.0508
リック	-11.0508
1994	-11.0514
絶え	-11.0515
青木	-11.0515
トルコ	-11.0515
KA	-11.0516
ファミリー	-11.0517
萩	-11.0517
mathbb	-11.0519
るという	-11.0521
留め	-11.0522
最初	-11.0523
掃除	-11.0523
徳川	-11.0525
役に	-11.0526
ご案内	-11.0528
幼児	-11.0529
ばか	-11.0529
に戻る	-11.053
しきりに	-11.0534
とします	-11.0534
о	-11.0535
崩	-11.0536
1979	-11.0538
再度	-11.054
5,000	-11.054
強制	-11.054
≫	-11.0541
症例	-11.0542
爆	-11.0543
がち	-11.0544
剛	-11.0545
充分	-11.0546
始める	-11.0548
頸	-11.0551
桐	-11.0553
マイクロ	-11.0553
に参加し	-11.0554
に入学	-11.0555
化された	-11.0557
▁現在は	-11.0557
召	-11.0559
田村	-11.0559
少数	-11.0559
わしは	-11.0559
が行われる	-11.056
するには	-11.056
組み合わせ	-11.0562
知ら	-11.0564
ろく	-11.0564
象徴	-11.0565
含	-11.0567
▁4.1	-11.0567
分まで	-11.0567
書を	-11.0572
Word	-11.0576
ジョージ	-11.0577
デー夕	-11.0578
1975	-11.0579
ていきます	-11.0579
的である	-11.0579
1978	-11.0581
テストデータ	-11.0581
以前に	-11.0581
知らせ	-11.0583
勤	-11.0583
政府は	-11.0585
子育て支援	-11.0586
の長さ	-11.0587
でなければ	-11.0587
の影	-11.0589
▁Journal	-11.0592
視線	-11.0592
別れ	-11.0593
たとえ	-11.0594
樂	-11.0596
▁いつも	-11.0597
モル	-11.0597
ドイツ語版	-11.0598
たび	-11.0598
腫	-11.0598
解除	-11.0598
響	-11.0599
ヌス	-11.0599
▁白	-11.0602
歩み	-11.0602
福井	-11.0602
披露	-11.0602
を実施し	-11.0604
如何に	-11.0606
亮	-11.0607
水産	-11.0608
締切	-11.0609
16:00	-11.0609
るんだ	-11.061
休憩	-11.0611
発見された	-11.0611
乙	-11.0611
テレ	-11.0612
苦痛	-11.0613
ヨン	-11.0615
碑	-11.0617
グレー	-11.0617
予備	-11.0617
悩	-11.0619
▁いま	-11.0619
面で	-11.062
入れた	-11.0621
コーチ	-11.0621
▁Com	-11.0622
イラスト	-11.0624
▁例	-11.0624
カレー	-11.0625
いたり	-11.0626
pt	-11.0627
mar	-11.0627
次のように	-11.0631
かも知れません	-11.0632
▁―	-11.0635
インターンシップ	-11.0636
体操	-11.0637
結成	-11.0637
内閣府	-11.0638
神話	-11.0638
ヤマ	-11.0646
日現在	-11.0646
談話	-11.0649
釜	-11.0649
をつけた	-11.0652
っていて	-11.0652
艶	-11.0655
LO	-11.0658
発表した	-11.0659
死体	-11.0662
中野	-11.0663
光が	-11.0664
エピソード	-11.0666
自覚	-11.0666
大会で	-11.0668
韓	-11.0668
デモ	-11.0669
マンガ	-11.0669
関係を	-11.067
枯	-11.067
CH	-11.0671
はすべて	-11.0672
を支援する	-11.0673
1970	-11.0674
歸	-11.0675
▁ID	-11.0675
新設	-11.0675
と同様	-11.0675
二郎	-11.0677
ger	-11.0677
コア	-11.0681
サラ	-11.0685
嬉しい	-11.0686
1950	-11.0686
必	-11.0688
物が	-11.0692
by	-11.0695
カール	-11.0697
インター	-11.0699
みち	-11.0699
してきました	-11.0699
▁真	-11.07
にあって	-11.0701
2024	-11.0701
イト	-11.0702
不幸	-11.0702
勝負	-11.0703
入力文	-11.0704
を書く	-11.0704
をとって	-11.0704
年にかけて	-11.0705
gu	-11.0705
を続け	-11.0708
地下鉄	-11.0708
ゐて	-11.0709
-01	-11.071
▁Text	-11.071
併せて	-11.0711
香り	-11.0711
開き	-11.0712
好評	-11.0712
上記の	-11.0714
瓦	-11.0715
そこの	-11.0716
宜	-11.0719
に相当する	-11.0719
これまでに	-11.0719
ov	-11.0719
壇	-11.072
ばん	-11.0721
塀	-11.0722
に挑戦	-11.0722
捜査	-11.0723
コピー	-11.0725
はいけない	-11.0726
賛成	-11.0726
同情	-11.0728
▁So	-11.0728
自社	-11.0728
、2015	-11.0728
index	-11.073
以内に	-11.0731
正確に	-11.0732
ぐら	-11.0734
ベッド	-11.0735
淵	-11.0735
捉え	-11.0735
!?	-11.0736
出典	-11.0736
経団連	-11.0737
出て来た	-11.0737
du	-11.074
成人	-11.0743
すすめ	-11.0743
父は	-11.0743
報告会	-11.0743
サンプリング	-11.0744
育て	-11.0745
日光	-11.0746
が来た	-11.0747
があるので	-11.075
みつ	-11.075
ron	-11.075
カレッジ	-11.075
ハル	-11.0752
▁22	-11.0753
ることが	-11.0754
來て	-11.0757
で最も	-11.0757
四方	-11.0761
pa	-11.0762
ack	-11.0762
開講	-11.0764
を重ね	-11.0766
リニューアル	-11.0769
訴え	-11.0769
いましたが	-11.0771
可能である	-11.0771
芸術家	-11.0771
うら	-11.0773
▁Jo	-11.0773
をよく	-11.0774
細い	-11.0775
宣伝	-11.0779
$,	-11.0779
▁}}	-11.078
かねて	-11.0782
▁American	-11.0784
だけど	-11.0786
▁machine	-11.0787
1945	-11.0788
ぶつ	-11.0788
蜂	-11.0789
含む	-11.079
すごい	-11.0791
て来る	-11.0796
カテゴリー	-11.0796
炊	-11.0798
の名称	-11.08
1981	-11.08
グラム	-11.0801
尼	-11.0803
形状	-11.0804
書店	-11.0804
プログラミング	-11.0805
▁$1	-11.0807
たいと思います	-11.0808
佐々木	-11.0808
反映	-11.0811
ガイ	-11.0811
をしたり	-11.0812
モジュール	-11.0813
比べ	-11.0815
その結果	-11.0815
知られ	-11.0816
を理解し	-11.0821
記者会見	-11.0823
あとは	-11.0823
半島	-11.0825
0.0	-11.0825
いたので	-11.0834
職人	-11.0834
MC	-11.0835
望み	-11.0837
が必要な	-11.084
取った	-11.084
蒲	-11.0842
絹	-11.0842
大変な	-11.0843
演技	-11.0844
SI	-11.0845
んでしょう	-11.0846
濃度	-11.0846
にわたり	-11.0847
▁\{	-11.0849
を有し	-11.0849
鎌倉	-11.0851
あたりの	-11.0853
例として	-11.0854
付属	-11.0856
pp	-11.0856
集会	-11.0857
考へて	-11.0857
sis	-11.0858
info	-11.0858
専門医	-11.0858
もありました	-11.0859
時間の	-11.0861
みや	-11.0861
除外	-11.0862
▁per	-11.0862
ess	-11.0863
運び	-11.0863
ディア	-11.0866
°	-11.0866
恐	-11.0867
▁七	-11.0869
ベルト	-11.0869
気軽に	-11.087
頼み	-11.087
おいた	-11.0871
健診	-11.0871
残った	-11.0874
格子	-11.0877
と云つて	-11.0877
のう	-11.0878
クラスタリング	-11.0879
種目	-11.088
色々な	-11.088
眼鏡	-11.088
最後	-11.0882
個人の	-11.0883
を出した	-11.0883
だったので	-11.0888
動向	-11.0891
▁自分の	-11.0893
顕	-11.0893
そういった	-11.0894
古墳	-11.0898
渡り	-11.09
景気	-11.09
詳細な	-11.0903
グラン	-11.0903
究	-11.0903
たちまち	-11.0904
曇	-11.0904
昔から	-11.0906
ギター	-11.0906
▁our	-11.0907
リエ	-11.0907
対象の	-11.0907
わたくしは	-11.0908
を提供	-11.0912
top	-11.0913
ですので	-11.0916
▁4.2	-11.0918
単純な	-11.092
に用いる	-11.092
貧乏	-11.0921
モード	-11.0922
開幕	-11.0922
尿	-11.0925
her	-11.0925
ベースの	-11.0926
▁Gra	-11.0926
▁朝	-11.0927
きら	-11.0928
夫は	-11.0929
変な	-11.0932
ずいぶん	-11.0932
ツィ	-11.0933
レーション	-11.0936
我慢	-11.0936
マイル	-11.0937
任せ	-11.0941
幸せ	-11.0941
直ちに	-11.0941
外部サイト	-11.0942
赤ちゃん	-11.0943
のだろうか	-11.0946
ようになって	-11.0948
その上	-11.0949
そりゃ	-11.0951
に登録	-11.0952
lin	-11.0953
珍しい	-11.0953
質疑応答	-11.0954
HA	-11.0954
ari	-11.0957
しておく	-11.0959
リュー	-11.096
ベルク	-11.0963
さして	-11.0964
このページ	-11.0967
生じた	-11.0968
評価指標	-11.0969
ゼン	-11.097
day	-11.097
が一番	-11.0972
▁40	-11.0973
を紹介する	-11.0976
の発表	-11.0978
握	-11.0984
oc	-11.0984
のテーマ	-11.0986
ルト	-11.0987
THE	-11.0987
ホッ	-11.0988
е	-11.0988
グランド	-11.0989
ものだった	-11.099
ディスカッション	-11.0991
彫刻	-11.0991
の自由	-11.0991
長崎県	-11.0992
NN	-11.0992
血管	-11.0994
四人	-11.0995
}$,	-11.0999
泣いて	-11.1001
添付	-11.1001
バンク	-11.1001
をつける	-11.1002
崩壊	-11.1005
明智	-11.1007
の性質	-11.1008
委	-11.1008
気になる	-11.1008
遺伝	-11.101
伊豆	-11.101
のとき	-11.101
幸い	-11.101
▁こうして	-11.1011
経済的	-11.1011
それにしても	-11.1012
ことはできない	-11.1012
-16	-11.1012
もしない	-11.1015
後で	-11.1015
と同	-11.1017
得ない	-11.1019
lu	-11.1021
beta	-11.1022
通称	-11.1024
携帯電話	-11.1025
単なる	-11.1025
が発生し	-11.1026
者も	-11.1026
и	-11.1027
帰国	-11.1033
阪	-11.1035
を食べ	-11.1035
こな	-11.1036
my	-11.1037
うす	-11.104
層の	-11.104
▁を用いた	-11.1044
漸く	-11.1045
御用	-11.1045
土曜	-11.1046
梁	-11.1048
年目	-11.1048
謀	-11.1049
調和	-11.1051
悠	-11.1052
の端	-11.1053
の拡大	-11.1053
を結ぶ	-11.1057
を含めた	-11.1057
ality	-11.1058
操	-11.1059
を聞き	-11.1059
後も	-11.1061
北京	-11.1061
の分類	-11.1061
っか	-11.1063
前まで	-11.1064
依存	-11.1064
匹	-11.1064
▁教授	-11.1064
重複	-11.1065
防犯	-11.1067
災	-11.1069
径	-11.1069
▁私も	-11.1069
を聞いた	-11.107
節の	-11.1071
生きている	-11.1072
ファッション	-11.1072
無し	-11.1073
設立された	-11.1075
が好き	-11.1075
したので	-11.1076
mathcal	-11.1077
笑ひ	-11.1077
▁Ca	-11.1078
手帳	-11.108
件数	-11.108
使える	-11.1083
を立て	-11.1083
支払	-11.1083
美味しい	-11.1086
忍び	-11.1087
ami	-11.1088
6-2	-11.1089
折り	-11.109
最初は	-11.1091
こみ	-11.1092
幽	-11.1093
を始める	-11.1094
嶋	-11.1094
ございません	-11.1095
続けた	-11.1096
不正	-11.1097
▁清	-11.1097
RS	-11.1098
立てる	-11.1098
線形	-11.1098
を展開	-11.1101
対象者	-11.1101
を知り	-11.1102
ところです	-11.1103
味方	-11.1103
以降の	-11.1104
ロッ	-11.1105
懸念	-11.1106
もらえ	-11.1106
凡	-11.1106
2,000	-11.1107
越え	-11.1107
_{1},	-11.1107
オーバー	-11.1107
1977	-11.1109
ze	-11.1111
▁Do	-11.1111
対応する	-11.1112
▁Min	-11.1116
しゅう	-11.1117
法第	-11.1117
に貢献	-11.1118
乍ら	-11.1118
明らか	-11.1119
▁スコア	-11.112
▁have	-11.1121
▁▼	-11.1122
々々	-11.1123
とかいう	-11.1124
置換	-11.1126
へた	-11.1126
周辺の	-11.1128
ler	-11.1128
故に	-11.1128
1971	-11.1129
悲しい	-11.113
掘	-11.113
じり	-11.113
を果たした	-11.1133
還	-11.1133
訓	-11.1133
椎	-11.1136
見出し	-11.1137
勢い	-11.1138
250	-11.1141
用途	-11.1142
募金	-11.1142
▁Be	-11.1143
何となく	-11.1144
クター	-11.1145
の皆さま	-11.1145
もらう	-11.1146
高山	-11.1146
誇	-11.1146
りん	-11.1148
止ま	-11.1149
日号	-11.1149
部品	-11.1149
一向	-11.115
迅速	-11.1151
各国	-11.1151
ボート	-11.1151
リゾート	-11.1151
造り	-11.1152
日本に	-11.1152
講習	-11.1153
殺された	-11.1154
▁彼らは	-11.1154
有機	-11.1157
ハム	-11.1157
階段	-11.1159
EMNLP	-11.116
叙	-11.1162
▁自分は	-11.1162
筆者	-11.1166
割引	-11.1167
ヒル	-11.1169
代表取締役社長	-11.1169
(2018	-11.117
1973	-11.1172
休暇	-11.1172
いきました	-11.1174
調子で	-11.1175
何と	-11.1176
儘	-11.1177
難い	-11.118
検討会	-11.1181
摂	-11.1181
わが国	-11.1182
殘	-11.1182
お問い合わせ先	-11.1183
どり	-11.1183
ber	-11.1184
頭が	-11.1185
果して	-11.1187
太鼓	-11.1187
に従事	-11.1188
的には	-11.1189
手数料	-11.119
▁you	-11.1194
沙	-11.1195
じた	-11.1197
火の	-11.1198
商店街	-11.1198
博士の	-11.1199
:50	-11.1201
に際して	-11.1202
休業	-11.1202
こちらの	-11.1203
号館	-11.1203
1976	-11.1205
下水道	-11.1205
際には	-11.1206
延期	-11.1206
姉さん	-11.1207
復旧	-11.1207
の確認	-11.1207
るので	-11.1208
番頭	-11.1209
神田	-11.1209
外から	-11.121
地獄	-11.1214
すごく	-11.1214
▁Word	-11.1215
一応	-11.1218
のではないかと	-11.1221
しまいました	-11.1223
を提案する	-11.1226
ッて	-11.1227
ばれ	-11.123
したものである	-11.123
むる	-11.123
託	-11.1231
惑星	-11.1232
それでは	-11.1233
▁六	-11.1234
訴	-11.1235
遺産	-11.1236
人手で	-11.1239
進学	-11.124
呼びかけ	-11.1242
備え	-11.1244
求人	-11.1245
さくら	-11.1246
ノル	-11.1246
葛	-11.1247
亡くなった	-11.1248
するまで	-11.1248
一般の	-11.1249
ということです	-11.125
を伝える	-11.1251
伝達	-11.1251
げに	-11.1252
停	-11.1254
ヴィン	-11.1254
▁「............」	-11.1255
1992	-11.1256
きく	-11.1257
兼ね	-11.1258
を抱え	-11.1259
かという	-11.1259
とのこと	-11.1259
オーストリア	-11.1261
諸島	-11.1262
ついている	-11.1262
殺人	-11.1262
重大な	-11.1263
裾	-11.1265
ちがい	-11.1265
欄	-11.1266
と私は	-11.1266
改修	-11.1267
万ドル	-11.1268
スカ	-11.1268
附け	-11.127
シニア	-11.127
たかった	-11.1271
まずは	-11.1271
をかけ	-11.1275
)10	-11.1276
▁}^{2}$	-11.1276
メモリ	-11.1276
負傷	-11.1278
要旨	-11.1278
も同じ	-11.1278
ions	-11.1279
かと思うと	-11.1279
崇	-11.1279
るほど	-11.1279
アプリケーション	-11.128
ところから	-11.128
ソング	-11.128
へ出て	-11.1282
濁	-11.1285
知識を	-11.1285
を発表した	-11.1292
本を	-11.1292
ブラン	-11.1297
に入れ	-11.1298
をめぐる	-11.1298
▁詳細は	-11.1299
▽	-11.1299
上る	-11.1299
シス	-11.13
への参加	-11.1301
:40	-11.1301
ゲート	-11.1302
だけを	-11.1303
)}	-11.1303
ここから	-11.1303
ぺア	-11.1304
ぁ	-11.1305
糖尿病	-11.1306
垂	-11.1307
無限	-11.1309
3-2	-11.1309
館内	-11.131
スピード	-11.1311
Cl	-11.1312
▁PDF	-11.1313
ワクチン	-11.1313
祖母	-11.1314
終え	-11.1314
金沢	-11.1315
優しい	-11.1315
いれば	-11.1316
が非常に	-11.1317
閉鎖	-11.1318
pro	-11.1319
斗	-11.132
チャンス	-11.132
ままに	-11.1321
々しく	-11.1322
ev	-11.1322
亭主	-11.1323
▁本研究は	-11.1324
-8	-11.1324
校舎	-11.1325
皆様の	-11.1325
を利用し	-11.1326
▁Figure	-11.1326
フロー	-11.1327
見ている	-11.1328
推奨	-11.1329
shot	-11.1329
▁1:	-11.1329
お越し	-11.133
▁写真	-11.133
肩を	-11.1331
単一	-11.1337
トマト	-11.1337
ぎり	-11.1337
を開始	-11.1338
の考え方	-11.1339
-13	-11.1339
代表的な	-11.1339
病人	-11.1339
二人で	-11.1341
次は	-11.1342
▁秋	-11.1344
و	-11.1346
高知県	-11.1346
1968	-11.1346
おくれ	-11.1347
▁健康	-11.1348
の意	-11.1349
人手評価	-11.1351
いること	-11.1351
々たる	-11.1353
英語の	-11.1353
が行われている	-11.1354
劉	-11.1356
あがり	-11.1358
足の	-11.1359
飲む	-11.1359
に沿って	-11.1362
乘	-11.1363
浅草	-11.1363
1974	-11.1365
娘は	-11.1365
を構成する	-11.1368
藏	-11.1368
魔法	-11.1369
ness	-11.1369
用紙	-11.137
\#	-11.1371
に大きな	-11.1372
台所	-11.1374
主任	-11.1375
暖	-11.1375
先刻	-11.138
けり	-11.1382
葉子	-11.1382
牛乳	-11.1382
チームが	-11.1385
を出し	-11.1386
政党	-11.1387
呉れ	-11.1388
日中	-11.1389
グロ	-11.1389
ランチ	-11.139
キリ	-11.139
プリント	-11.1391
マウス	-11.1391
を失	-11.1394
中央区	-11.1394
メタ	-11.1394
らせた	-11.1397
を出て	-11.1397
讀	-11.1397
training	-11.14
二次	-11.14
▁「......	-11.1401
ring	-11.1401
気候	-11.1401
れん	-11.1401
都会	-11.1402
がありません	-11.1402
分散表現	-11.1403
橋の	-11.1405
ひとりで	-11.1405
原作	-11.1405
加速	-11.1406
ぢやないか	-11.1406
公益財団法人	-11.1406
お問い合わせください	-11.1406
云つて	-11.141
川町	-11.1412
▁赤	-11.1412
▁vol	-11.1413
観音	-11.1414
冗談	-11.1416
トピックス	-11.1417
怪我	-11.1419
警察署	-11.1421
180	-11.1423
▁皆さん	-11.1425
咲	-11.1425
UR	-11.1425
寄附	-11.1426
違反	-11.1428
黄色	-11.1428
当り	-11.143
^	-11.1431
傍に	-11.1433
グッズ	-11.1434
かなかった	-11.1435
簡	-11.1435
パイ	-11.1436
元々	-11.1436
理由は	-11.1437
来ている	-11.1438
▁〈	-11.1439
あか	-11.144
顏を	-11.1441
▁そのとき	-11.1441
っていく	-11.1442
かゝ	-11.1442
▁なぜ	-11.1442
点で	-11.1443
▁1998	-11.1443
コト	-11.1444
熱心に	-11.1445
あまりに	-11.1447
んな	-11.1447
ところの	-11.1447
目で	-11.1449
地面	-11.145
どうやら	-11.1451
の上へ	-11.1451
史料	-11.1452
スタジアム	-11.1453
聴き	-11.1453
har	-11.1454
当時は	-11.1455
何だ	-11.1456
コツ	-11.1458
向いて	-11.1459
のことです	-11.1464
オレ	-11.1465
言つて	-11.1466
支店	-11.147
描写	-11.1471
面白	-11.1472
大将	-11.1474
を連れて	-11.1474
参画	-11.1475
僕も	-11.1478
わざわざ	-11.1478
▁もっとも	-11.1479
リアル	-11.1479
ホル	-11.148
ier	-11.148
はいって	-11.148
ないのだ	-11.1481
ood	-11.1481
対照	-11.1482
リアン	-11.1483
を決め	-11.1484
何らかの	-11.1484
を置く	-11.1485
となっていた	-11.1485
を探し	-11.1485
叩き	-11.1487
だして	-11.1489
▁実は	-11.1489
況	-11.1491
野村	-11.1494
グラス	-11.1495
▁こういう	-11.1495
強調	-11.1497
▁method	-11.1497
定着	-11.1498
通りに	-11.1498
作る	-11.1501
抽象	-11.1503
本町	-11.1503
もらい	-11.1503
沿岸	-11.1504
回帰	-11.1504
マッ	-11.1505
che	-11.151
リリースされた	-11.1513
長年	-11.1514
方法は	-11.1516
女王	-11.1516
たとえば	-11.1517
も亦	-11.1517
1.0	-11.1518
相手に	-11.1518
レオ	-11.1519
そこは	-11.1519
云ひ	-11.152
▁英語	-11.152
1993	-11.1524
經	-11.1524
の命	-11.1525
町民	-11.1525
少しずつ	-11.1526
の距離	-11.1527
pref	-11.1528
出しました	-11.1529
/4	-11.153
壺	-11.1531
そうである	-11.1532
ルイ	-11.1532
彼等の	-11.1532
▁[15]	-11.1534
忽ち	-11.1538
の指導	-11.154
吸収	-11.1541
と結婚	-11.1541
をいただきました	-11.1542
とすると	-11.1543
演説	-11.1543
hu	-11.1545
コミ	-11.1546
鼓	-11.1546
返事を	-11.1548
一連の	-11.1553
売却	-11.1553
されたもの	-11.1555
for	-11.1556
もせず	-11.1557
軽減	-11.1557
意思	-11.156
タリ	-11.1561
いくらか	-11.1562
使って	-11.1562
▁単語	-11.1562
NTT	-11.1562
註	-11.1563
▁最近	-11.1563
尽く	-11.1565
貰	-11.1565
oka	-11.1566
両立	-11.1567
撮	-11.1568
スキ	-11.1568
惜し	-11.1569
隻	-11.1569
形に	-11.157
国際的な	-11.1572
を楽しむ	-11.1574
審査会	-11.1576
BL	-11.1577
貌	-11.1577
さうだ	-11.1577
集計	-11.1578
役者	-11.1579
あれば	-11.158
顔の	-11.1582
ジョー	-11.1585
スペシャル	-11.1586
固有表現	-11.1586
規格	-11.1587
坊主	-11.1587
のみを	-11.1587
命を	-11.1587
東西	-11.1587
共起	-11.1588
していきたい	-11.1588
中継	-11.159
ゲー	-11.159
示唆	-11.159
近所の	-11.1591
嵐	-11.1592
set	-11.1592
語を	-11.1592
リウス	-11.1593
町内	-11.1594
名簿	-11.1595
1.5	-11.1596
機械学習	-11.1597
ティン	-11.1597
軍人	-11.1598
弟の	-11.1599
掛けて	-11.16
吉野	-11.16
搭載	-11.1601
しないで	-11.1601
やっている	-11.1604
地位	-11.1605
藻	-11.1605
スパイ	-11.1606
NGO	-11.1607
宮崎	-11.1611
性別	-11.1612
言葉が	-11.1614
熱い	-11.1616
殊に	-11.1616
者数	-11.1617
cent	-11.1617
女を	-11.1617
1969	-11.1619
▁En	-11.1619
そろ	-11.162
レギュラー	-11.162
のことである	-11.1621
困った	-11.1621
始末	-11.1624
右手	-11.1625
孔	-11.1625
上手	-11.1629
▁まずは	-11.1629
1964	-11.1631
気候変動	-11.1631
日常生活	-11.1631
上がった	-11.1633
ه	-11.1635
戯曲	-11.1636
体重	-11.1636
ロマン	-11.1639
討論	-11.1639
ama	-11.164
宜い	-11.1641
▁Table	-11.1642
両方	-11.1644
分野で	-11.1645
La	-11.1645
ご相談	-11.1647
たって	-11.1647
がたくさん	-11.1649
の声が	-11.1649
お待ち	-11.1651
用いた	-11.1651
人である	-11.1653
宋	-11.1655
していただく	-11.1655
まき	-11.1657
まア	-11.1658
に立つ	-11.1658
岡田	-11.1659
:3	-11.1659
古賀市	-11.1659
子と	-11.166
えば	-11.1663
▁「――	-11.1663
▁無料	-11.1663
けない	-11.1663
ッキー	-11.1664
に出た	-11.1664
給付	-11.1666
トンネル	-11.1666
岡山	-11.1668
施	-11.1669
皆さま	-11.1673
返信	-11.1678
たので	-11.1678
お気軽に	-11.1678
殆んど	-11.1681
いけ	-11.1681
SO	-11.1682
の真	-11.1682
とらえ	-11.1684
に役立つ	-11.1684
▁un	-11.1685
遅	-11.1685
はあまり	-11.1686
カム	-11.1688
ぬけ	-11.169
少々	-11.1693
ding	-11.1693
ob	-11.1693
▁task	-11.1694
責任者	-11.1694
が見られる	-11.1696
分らない	-11.1697
▁Ta	-11.1701
しまって	-11.1702
のある方	-11.1703
思え	-11.1703
提供する	-11.1704
呂	-11.1705
Ma	-11.1706
まれる	-11.1706
興奮	-11.1707
描き	-11.1709
を大切に	-11.1709
▁第二	-11.171
霞	-11.1712
土地の	-11.1712
全体で	-11.1714
忘れて	-11.1714
▁JR	-11.1715
が少ない	-11.1715
船の	-11.1716
情報は	-11.1716
Windows	-11.1717
絡	-11.1717
泣く	-11.1718
換え	-11.1718
ichi	-11.1722
ization	-11.1723
曳	-11.1725
深さ	-11.1725
に引き	-11.1726
に陥	-11.1726
塊	-11.1729
OB	-11.1729
を聞く	-11.1731
幅広く	-11.1731
代りに	-11.1733
無線	-11.1733
▁翌	-11.1733
認	-11.1735
美人	-11.1737
るようになった	-11.1738
ms	-11.1739
硝子	-11.1739
ラブ	-11.1739
原子	-11.174
▁中国	-11.1741
名義	-11.1743
も見	-11.1743
作文	-11.1745
直通	-11.1746
スマート	-11.1746
の普及	-11.1748
楼	-11.175
適切	-11.1752
▁preprint	-11.1753
琉球	-11.1754
リサイクル	-11.1754
ものも	-11.1755
組の	-11.1756
▁続いて	-11.1758
腕を	-11.1758
を見せて	-11.1758
ject	-11.1759
GE	-11.176
の外に	-11.176
頂きました	-11.1761
遅く	-11.1761
自動評価	-11.1763
▁2.1	-11.1764
を見つめ	-11.1765
(8	-11.1766
うむ	-11.1767
県立	-11.1767
同定	-11.1768
地域に	-11.177
光り	-11.1771
▁2.2	-11.1772
者で	-11.1773
▁スポーツ	-11.1776
▁佐藤	-11.1777
シリア	-11.1778
慰	-11.178
▁個の	-11.178
っしゃ	-11.1781
max	-11.1782
対戦	-11.1783
共生	-11.1783
盛んに	-11.1783
傾	-11.1783
濃	-11.1784
三人の	-11.1785
問題点	-11.1786
有料	-11.1786
夜は	-11.1787
立てた	-11.1787
災害時	-11.1789
OC	-11.179
飛行機	-11.1791
餌	-11.1794
})$	-11.1794
水戸	-11.1795
積み	-11.1795
基本的に	-11.1795
便利	-11.1796
を紹介します	-11.1798
嫌い	-11.18
ベルリン	-11.1803
par	-11.1804
どこから	-11.1806
要するに	-11.1806
をあげて	-11.1807
▁主催	-11.1808
アドレス	-11.1809
訴訟	-11.1812
を確認	-11.1813
小学校の	-11.1813
ナビ	-11.1815
招	-11.182
なかで	-11.182
熊本県	-11.1822
デス	-11.1823
▁ACL	-11.1824
De	-11.1825
、2014	-11.1825
結果として	-11.1826
広がり	-11.1827
見ても	-11.1827
ようにして	-11.1827
問題が	-11.1829
int	-11.1829
フィン	-11.1832
お礼	-11.1833
に基づいた	-11.1836
潔	-11.1836
▁さうして	-11.184
だらけ	-11.184
場所で	-11.184
如く	-11.1841
区の	-11.1841
市出身	-11.1845
/10	-11.1846
鋭	-11.1849
山に	-11.1849
素敵な	-11.185
出来た	-11.185
尖	-11.1851
勝手に	-11.1851
混合	-11.1853
▁information	-11.1853
覧	-11.1853
そら	-11.1854
やめ	-11.1856
夫人は	-11.1858
哀	-11.1858
ェ	-11.1858
そうと	-11.186
EM	-11.186
恋人	-11.1862
描いた	-11.1862
修理	-11.1864
付く	-11.1865
の諸	-11.1865
タクシー	-11.1866
▁ところで	-11.1866
news	-11.187
フェン	-11.1872
氣が	-11.1874
御座	-11.1875
中から	-11.1876
民衆	-11.1878
一面	-11.188
四五	-11.188
うれしい	-11.1883
霜	-11.1883
red	-11.1884
寄せ	-11.1884
呼んだ	-11.1885
駐	-11.1885
平野	-11.1886
と比べて	-11.1888
ソル	-11.1888
▁昨日	-11.1888
在住	-11.1888
避け	-11.1889
という話	-11.1891
ating	-11.1892
仮定	-11.1892
新聞社	-11.1893
出ている	-11.1894
和田	-11.1894
の質	-11.1894
バスケットボール	-11.1895
▁2,	-11.1898
を図るため	-11.1898
▁evaluation	-11.19
数多く	-11.19
ビット	-11.19
目次	-11.19
癌	-11.1901
(2023	-11.1902
てある	-11.1902
頂き	-11.1904
合宿	-11.1904
気温	-11.1905
を実施します	-11.1908
失礼	-11.191
総務課	-11.191
統治	-11.1911
開かれた	-11.1912
1.2	-11.1912
正確な	-11.1913
駕籠	-11.1913
vo	-11.1913
電池	-11.1914
下で	-11.1914
に行き	-11.1914
おち	-11.1914
眠り	-11.1915
の事例	-11.1917
を与えた	-11.1918
曰く	-11.1918
判決	-11.1919
問題に	-11.1919
つら	-11.1921
St	-11.1922
キッズ	-11.1922
ごう	-11.1925
申す	-11.1926
放送された	-11.1929
死の	-11.1929
法学部	-11.193
が見える	-11.193
どろ	-11.1931
サンタ	-11.1931
と考えられ	-11.1932
学院大学	-11.1932
と述べている	-11.1933
LINE	-11.1933
二本	-11.1934
最低	-11.1936
幽霊	-11.1937
返して	-11.1939
くらいの	-11.1939
段々	-11.1941
股	-11.1941
警報	-11.1942
親切	-11.1942
の参加	-11.1945
独立行政法人	-11.1946
削	-11.1948
出版社	-11.1948
をそれぞれ	-11.1948
配列	-11.1949
世界で	-11.195
論じ	-11.1953
庭の	-11.1954
周囲の	-11.1954
優先	-11.1954
二日	-11.1955
に住む	-11.1959
県の	-11.1959
pan	-11.1959
の旅	-11.196
東京オリンピック	-11.196
方向に	-11.1961
無駄	-11.1961
開催される	-11.1961
五六	-11.1962
sc	-11.1962
早稲田大学	-11.1962
▁昨年	-11.1963
看	-11.1964
場合がある	-11.1964
ディング	-11.1964
もって	-11.1965
ラップ	-11.1966
子どもたちの	-11.1967
現役	-11.1967
との交流	-11.1968
持っている	-11.1969
分からない	-11.197
HO	-11.1971
聞え	-11.1971
でもあった	-11.1972
空想	-11.1972
状況を	-11.1972
▁Bi	-11.1972
隙	-11.1973
顔をして	-11.1974
エントリー	-11.1974
ホワイト	-11.1975
緑の	-11.1975
透明	-11.1975
居ります	-11.1975
太田	-11.1976
▁同時に	-11.1976
せり	-11.1977
ありますが	-11.1977
斯	-11.1978
添え	-11.1978
たびに	-11.1979
を獲得	-11.1981
定める	-11.1982
ソ連	-11.1983
掘り	-11.1983
名で	-11.1985
絶えず	-11.1986
の多くは	-11.1986
驚か	-11.1989
地区の	-11.1991
の育成	-11.1993
げた	-11.1993
サイクル	-11.1994
を入れ	-11.1995
おど	-11.1997
比率	-11.1999
名古屋市	-11.1999
Ch	-11.2001
ってる	-11.2001
に入れて	-11.2002
評価した	-11.2003
が出来	-11.2003
有害	-11.2004
優秀	-11.2005
発想	-11.2008
と同じく	-11.2008
警官	-11.2009
陶	-11.201
ご覧ください	-11.2012
証券	-11.2014
中山	-11.2016
本日	-11.2017
申し上げます	-11.2017
ギャ	-11.2017
唯一	-11.2017
シャツ	-11.2018
ケット	-11.2019
外出	-11.2019
NMT	-11.2021
BI	-11.2021
することによって	-11.2021
せし	-11.2022
できれば	-11.2024
に就任した	-11.2024
貨	-11.2025
巨大な	-11.2026
響き	-11.2027
篠	-11.2027
ようなもの	-11.2027
定例会	-11.2027
よろしく	-11.2028
水が	-11.2028
驚いて	-11.2028
情勢	-11.2029
ましく	-11.203
くれて	-11.2031
1,2	-11.2031
を抽出する	-11.2031
有る	-11.2033
trained	-11.2033
司会	-11.2034
降りて	-11.2037
戒	-11.2037
}(\	-11.2039
変異	-11.204
以降は	-11.204
エジプト	-11.204
ジャズ	-11.2041
じん	-11.2041
顎	-11.2043
豊富な	-11.2046
なんとか	-11.2048
▁09	-11.2048
就業	-11.205
の一部を	-11.2051
鉱	-11.2053
恒	-11.2053
ب	-11.2057
に属し	-11.2057
忌	-11.206
知らなかった	-11.206
父が	-11.2062
云わ	-11.2065
私と	-11.2065
ディレクター	-11.2065
王子	-11.2067
島根県	-11.2068
サム	-11.2069
奉行	-11.2069
は必ず	-11.207
はそれを	-11.207
の意義	-11.2072
EA	-11.2072
の壁	-11.2072
▁さあ	-11.2076
繰り	-11.2076
GT	-11.2077
わかって	-11.2078
鮮	-11.2079
斉	-11.208
睡	-11.2081
思います	-11.2083
山形	-11.2086
言えば	-11.2086
したように	-11.2086
連結	-11.2087
ボランティア活動	-11.2088
永遠	-11.209
同様	-11.2093
を理解する	-11.2093
らざる	-11.2094
を実施する	-11.2095
救	-11.2095
▁(6)	-11.2096
を開設	-11.2096
神様	-11.2096
であろうか	-11.2097
▁Systems	-11.21
正規	-11.21
トム	-11.2101
ng	-11.2101
に出る	-11.2102
出來	-11.2104
号線	-11.2105
▁North	-11.2107
道の駅	-11.2108
ata	-11.2111
があつて	-11.2111
▁講演	-11.2111
上から	-11.2112
凍	-11.2112
ものとする	-11.2112
dy	-11.2113
cho	-11.2115
るゝ	-11.2115
実施した	-11.2115
(2022	-11.2118
淳	-11.2119
将棋	-11.212
ゆえ	-11.212
絶対に	-11.2121
専門学校	-11.2123
われて	-11.2123
社内	-11.2123
リュ	-11.2124
に来る	-11.2124
jo	-11.2125
の決定	-11.2125
賞受賞	-11.2129
の精神	-11.2131
助成金	-11.2132
の分布	-11.2133
▁この時	-11.2133
パッケージ	-11.2134
薬物	-11.2134
攻め	-11.2136
セー	-11.2138
入っている	-11.2138
の際	-11.2138
ないし	-11.214
思いを	-11.214
ple	-11.2141
なのに	-11.2143
ストン	-11.2143
110	-11.2143
▁URL	-11.2144
をやって	-11.2144
の組み合わせ	-11.2145
て居た	-11.2146
法学	-11.2147
伝承	-11.2149
人格	-11.2149
ドライバー	-11.215
おろ	-11.2151
of	-11.2151
ort	-11.2152
使われ	-11.2154
ゲノム	-11.2155
さわ	-11.2155
リと	-11.2157
BE	-11.2158
を探	-11.2158
チームは	-11.2158
家屋	-11.2159
生存	-11.2162
ニャ	-11.2164
▁Lin	-11.2165
権力	-11.2166
▁1990	-11.2168
法則	-11.2168
reg	-11.2169
を評価する	-11.2169
を見つけ	-11.217
対話システム	-11.217
一族	-11.2171
comp	-11.2172
の妻	-11.2174
気仙沼	-11.2175
みえ	-11.2175
スー	-11.2176
のさ	-11.2178
TS	-11.2179
無事に	-11.2181
あがって	-11.2185
駄目	-11.2185
ますか	-11.2185
起きて	-11.2186
▁sentence	-11.2186
安全性	-11.2186
十日	-11.2188
務め	-11.2189
改定	-11.219
獄	-11.2192
兵隊	-11.2193
TE	-11.2194
さうに	-11.2194
六十	-11.2196
検診	-11.2197
英語で	-11.2198
ってくる	-11.22
無かった	-11.22
ina	-11.22
▁ここに	-11.2202
本学の	-11.2203
求める	-11.2204
遥	-11.2204
調査結果	-11.2205
フライ	-11.2205
んだね	-11.2206
他者	-11.2207
前述の	-11.2208
av	-11.221
ステークス	-11.2211
den	-11.2211
land	-11.2211
どうせ	-11.2212
の間の	-11.2214
水素	-11.2214
を置いて	-11.2214
定め	-11.2215
構文	-11.2218
通じ	-11.2218
声優	-11.2219
業種	-11.2221
存在した	-11.2222
5-2	-11.2222
デザイナー	-11.2223
大使館	-11.2223
を要する	-11.2223
ade	-11.2224
廃棄物	-11.2225
同じような	-11.2226
情熱	-11.2228
適合	-11.2229
モーター	-11.2229
できず	-11.223
吐	-11.223
端末	-11.2231
代替	-11.2232
飲んで	-11.2234
Li	-11.2235
上下	-11.2236
か否か	-11.2237
アルコール	-11.2237
第二次世界大戦	-11.2238
先着順	-11.2238
いじめ	-11.2239
ward	-11.224
去った	-11.2241
の家に	-11.2241
▁3)	-11.2242
いちばん	-11.2242
直し	-11.2243
おりました	-11.2245
サイン	-11.2245
著作	-11.2246
愛情	-11.2246
ここは	-11.2247
▁×	-11.2247
この世	-11.2247
若干	-11.2249
なくては	-11.225
無料で	-11.2251
バイアス	-11.2252
ナス	-11.2252
ペース	-11.2252
苦しみ	-11.2253
▁Science	-11.2253
▁$(\	-11.2255
徳島	-11.2255
▁–	-11.2258
渋谷	-11.2259
なくなり	-11.2262
正月	-11.2263
の安全	-11.2263
上った	-11.2264
者たち	-11.2265
石油	-11.2266
同志	-11.2268
見直し	-11.2268
八重	-11.2269
肢	-11.2269
死去した	-11.2269
pos	-11.2269
隣の	-11.227
シミュレーション	-11.2271
スイス	-11.2271
占領	-11.2272
セラ	-11.2272
があるが	-11.2272
NT	-11.2273
atch	-11.2273
非難	-11.2273
第三者	-11.2274
基本計画	-11.2275
▁ホテル	-11.2276
扱	-11.2276
主として	-11.2277
-\	-11.2277
▁1997	-11.2278
イスラエル	-11.2278
残りの	-11.2281
秋田県	-11.2281
カ月	-11.2283
一二	-11.2283
沿い	-11.2284
かれは	-11.2284
の提出	-11.2285
を書いた	-11.2287
質問応答	-11.2287
酸化	-11.2288
△	-11.2288
生成された	-11.2291
の良い	-11.2291
鑑	-11.2292
キリスト教	-11.2292
ないため	-11.2292
外部リンク	-11.2294
コレ	-11.2294
走行	-11.2296
○○	-11.2297
hiro	-11.2297
以下のように	-11.2297
求められ	-11.2298
WA	-11.2299
分類器	-11.2299
保守	-11.23
所を	-11.2301
アカ	-11.2302
鈍	-11.2304
▁⇒	-11.2304
私自身	-11.2304
を構築し	-11.2306
リソース	-11.2308
年末	-11.2309
開場	-11.2309
参加費	-11.231
開いて	-11.231
の必要性	-11.2312
ブロ	-11.2313
DS	-11.2314
の予測	-11.2314
いただいて	-11.2314
人手	-11.2318
婆さん	-11.2318
時半	-11.2318
アドバイザー	-11.2322
悲しみ	-11.2323
ペイ	-11.2324
いただきたい	-11.2325
を比較する	-11.2325
考えると	-11.2325
再現率	-11.2326
sch	-11.2327
ud	-11.2327
の中では	-11.2327
を図り	-11.233
尊敬	-11.2331
1991	-11.2333
の定義	-11.2335
告げ	-11.2335
争い	-11.2335
に乗り	-11.2338
炭素	-11.2338
使われている	-11.2341
服装	-11.2342
偉	-11.2343
に達し	-11.2344
手法は	-11.2346
知財	-11.2348
ケーキ	-11.2349
ord	-11.2349
らしかった	-11.235
要綱	-11.2351
について説明	-11.2354
▁登録	-11.2358
恭	-11.2358
通し	-11.2359
ご確認ください	-11.2363
エフ	-11.2364
1-3	-11.2367
冷たい	-11.2368
離れて	-11.2371
がよい	-11.2371
賃金	-11.2372
曹	-11.2372
っち	-11.2373
お越しください	-11.2375
ご覧	-11.2375
先づ	-11.2377
ございました	-11.2377
増え	-11.2377
▁use	-11.2378
=1}^{	-11.2378
に参加する	-11.2381
眼で	-11.2381
ology	-11.2384
RT	-11.2384
にゃ	-11.2384
知恵	-11.2384
現に	-11.2385
前後の	-11.2385
を再	-11.2385
当事者	-11.2387
三度	-11.2388
を追加	-11.239
第四	-11.239
立っていた	-11.239
色を	-11.2391
▁□	-11.2392
催し	-11.2392
通過	-11.2392
賜	-11.2392
工学部	-11.2393
(4)	-11.2393
後援	-11.2394
どちらも	-11.2394
んじゃ	-11.2394
横浜市	-11.2396
持続可能な	-11.2397
ハード	-11.2399
被災者	-11.2399
腫瘍	-11.24
をどう	-11.2401
1967	-11.2402
クロー	-11.2402
本館	-11.2402
ally	-11.2404
クライ	-11.2405
をクリック	-11.2406
を掲載	-11.2406
次郎は	-11.2407
なことを	-11.2407
瓜	-11.2408
複製	-11.2409
利活用	-11.2409
サーバ	-11.2409
長野	-11.2412
プライ	-11.2413
近畿	-11.2417
リレー	-11.2419
dis	-11.2419
にわたる	-11.242
we	-11.242
などがある	-11.2427
牢	-11.2427
▁鈴木	-11.2428
装飾	-11.2429
の上を	-11.243
働いて	-11.243
であるという	-11.2431
欧	-11.2432
を提示	-11.2433
当院	-11.2434
秀吉	-11.2436
度に	-11.2437
▁Man	-11.2437
見たい	-11.2437
諦め	-11.2437
を求めて	-11.2438
壁に	-11.2438
だとか	-11.2438
を探す	-11.2439
しなければ	-11.2442
るまで	-11.2442
をつくり	-11.2442
現場で	-11.2442
実用	-11.2442
ニュ	-11.2444
対抗	-11.2444
泡	-11.2444
と同じように	-11.2445
ara	-11.2446
代表取締役	-11.2446
自然と	-11.2447
邪魔	-11.2447
噴	-11.2448
橋本	-11.2449
うちの	-11.245
最小	-11.245
という事	-11.2452
早め	-11.2452
タイミング	-11.2452
コロナ禍	-11.2453
に至った	-11.2453
旭	-11.2453
べつ	-11.2454
職務	-11.2454
コマ	-11.2455
愉快	-11.2456
van	-11.2458
自然言語	-11.2458
滴	-11.246
をしています	-11.246
ファインチューニング	-11.2463
顔色	-11.2464
劇団	-11.2465
中期	-11.2465
:30	-11.2465
が得られる	-11.2466
ワシントン	-11.2467
する方法	-11.2468
創出	-11.2469
へい	-11.2471
老人は	-11.2472
▁Ste	-11.2474
北九州市	-11.2476
惑	-11.2476
見方	-11.2477
隣り	-11.2477
プロフィール	-11.2478
直ぐに	-11.2478
自動的に	-11.2479
上限	-11.248
TEL	-11.248
古賀	-11.2481
ギー	-11.2481
諏訪	-11.2484
ことがわかった	-11.2484
んですね	-11.2484
進んだ	-11.2489
チーズ	-11.2492
交代	-11.2492
阪神	-11.2495
ことがあった	-11.2495
次のとおり	-11.2497
スティ	-11.25
王座	-11.25
預	-11.2503
加盟	-11.2504
取り組む	-11.2505
視野	-11.2505
はとても	-11.2506
しましたが	-11.2506
徴	-11.2511
用例	-11.2512
の設計	-11.2514
:04	-11.2514
ためである	-11.2515
▁>>	-11.2515
変わった	-11.2515
めぐり	-11.2516
工作	-11.2516
憤	-11.2517
摘	-11.2517
わね	-11.2519
猶	-11.2521
へえ	-11.2521
下さる	-11.2521
手がかり	-11.2522
▁Online	-11.2525
競馬	-11.2525
ビス	-11.2527
げて	-11.2528
していくこと	-11.2528
最適	-11.2528
最近の	-11.2529
診察	-11.2531
形態素	-11.2532
誇り	-11.2532
が見え	-11.2533
いまだ	-11.2533
説明した	-11.2536
口から	-11.2537
條	-11.2537
コミック	-11.2538
の概念	-11.2541
耳を	-11.2541
横に	-11.2542
信じ	-11.2543
違った	-11.2543
ことになります	-11.2544
さる	-11.2544
涙を	-11.2545
▁Ex	-11.2545
走って	-11.2547
説明する	-11.2548
向かい	-11.2549
もよく	-11.2549
献	-11.2549
当日の	-11.2549
されると	-11.255
隠し	-11.255
鴨	-11.2551
なア	-11.2551
分間	-11.2551
ゆか	-11.2551
申し上げ	-11.2552
あつて	-11.2552
地域づくり	-11.2553
主要な	-11.2554
駄	-11.2554
ユニ	-11.2557
▁As	-11.2559
ができた	-11.2559
二百	-11.2563
村上	-11.2563
目的で	-11.2565
-14	-11.2571
ロシアの	-11.2571
使用されている	-11.2571
該当	-11.2575
任務	-11.2575
こむ	-11.2576
▁Shi	-11.2576
サミット	-11.2577
勧め	-11.2577
の募集	-11.2577
の主な	-11.2578
佐賀県	-11.2579
を待つ	-11.258
地帯	-11.258
宴	-11.2581
達の	-11.2582
極性	-11.2583
塵	-11.2584
足りない	-11.2584
の仕方	-11.2584
の集合	-11.2586
に存在する	-11.2586
を求めた	-11.2587
ひそ	-11.2588
実感	-11.2588
ミリ	-11.2589
窮	-11.2591
ご家族	-11.2592
ling	-11.2592
そのほか	-11.2593
悪化	-11.2593
、2013	-11.2594
の為に	-11.2602
のスコア	-11.2603
理学	-11.2604
問合せ先	-11.2605
地域社会	-11.2608
ドラフト	-11.2608
ペット	-11.2609
リヤ	-11.261
Net	-11.2611
ET	-11.2611
暗く	-11.2612
反省	-11.2612
綴	-11.2613
一旦	-11.2613
収益	-11.2615
に従い	-11.2618
づく	-11.262
技術を	-11.262
伏せ	-11.2621
本市	-11.2623
▁このとき	-11.2625
用に	-11.2625
挑	-11.2627
特色	-11.2628
人から	-11.2629
犠牲	-11.263
達が	-11.263
年末年始	-11.2631
わるい	-11.2634
フェル	-11.2635
桁	-11.2638
とっても	-11.2639
▁日本では	-11.264
摺	-11.264
かぬ	-11.2641
に記載	-11.2642
選手が	-11.2643
頑	-11.2643
event	-11.2645
好み	-11.2645
養子	-11.2645
広がる	-11.2645
▁Wei	-11.2646
ランク	-11.2646
を追	-11.2648
▁inter	-11.2651
功績	-11.2651
娘が	-11.2651
すぎて	-11.2652
変り	-11.2653
偶	-11.2653
でござります	-11.2656
分かる	-11.2657
尽力	-11.2662
いいか	-11.2663
テクノロジー	-11.2663
お互い	-11.2664
学位	-11.2665
に注意	-11.2665
齢	-11.2666
スパン	-11.2666
SM	-11.2668
開拓	-11.2669
ネイ	-11.2669
愛媛県	-11.2671
は少し	-11.2671
を超えた	-11.2671
拍子	-11.2671
大分県	-11.2672
何にも	-11.2673
活性	-11.2673
を迎える	-11.2674
改訂	-11.2674
四つ	-11.2674
中世	-11.2675
驚く	-11.2676
虐待	-11.2677
ならではの	-11.2677
日までに	-11.2678
世界選手権	-11.2678
岡山県	-11.2678
マク	-11.2678
次のような	-11.2679
バッハ	-11.2681
瑞	-11.2682
過去に	-11.2682
塗り	-11.2682
したのである	-11.2683
融資	-11.2684
助言	-11.2684
▁まあ	-11.2685
一八	-11.2687
このまま	-11.2691
模擬	-11.2691
青山	-11.2691
みんなの	-11.2692
ソーシャル	-11.2693
に至るまで	-11.2694
▁問	-11.2694
が存在し	-11.2695
tor	-11.2697
観光庁	-11.2698
曲線	-11.2699
構え	-11.27
▁New	-11.27
ことについて	-11.2701
保健所	-11.2701
楽しんで	-11.2702
歌を	-11.2702
洪水	-11.2704
を離れ	-11.2704
▁Technologies	-11.2706
の方を	-11.2707
ys	-11.2707
主導	-11.2707
乾燥	-11.2709
た場合	-11.2711
tal	-11.2711
紅葉	-11.2711
13:00	-11.2711
わん	-11.2712
通学	-11.2715
農民	-11.2715
に対しても	-11.2715
馴れ	-11.2716
招き	-11.2717
南北	-11.2719
ショート	-11.2721
:「	-11.2721
合唱	-11.2722
スペイン語	-11.2722
over	-11.2724
職員の	-11.2727
のほかに	-11.2728
完全な	-11.273
関わり	-11.2731
を調べる	-11.2732
あけ	-11.2733
を知って	-11.2735
投与	-11.2739
邪	-11.274
おうと	-11.274
国籍	-11.2741
▁he	-11.2741
An	-11.2743
候補者	-11.2743
の有効性	-11.2744
特有の	-11.2745
道に	-11.2745
▁Car	-11.2745
▁Proc	-11.2746
磁	-11.2746
コーディネーター	-11.2747
の際は	-11.2748
ことになりました	-11.275
ッテ	-11.275
SU	-11.2751
注意事項	-11.2751
発掘	-11.2751
アブ	-11.2752
入団	-11.2754
枚目	-11.2755
かって	-11.2755
元来	-11.2756
小路	-11.2756
を立ち上げ	-11.2757
ローズ	-11.2757
わけだ	-11.2758
を深め	-11.2759
消えて	-11.276
シアター	-11.2761
最高の	-11.2762
▁me	-11.2762
書き換え	-11.2763
山崎	-11.2765
未来の	-11.2766
ロウ	-11.2767
が来て	-11.2767
おかしい	-11.2774
らしさ	-11.2775
対訳	-11.2775
下駄	-11.2775
変化する	-11.2777
奨学金	-11.2777
になれば	-11.2777
せめて	-11.2778
▁1995	-11.2778
ey	-11.2779
トリー	-11.2779
●	-11.278
ヒント	-11.2781
自分たちの	-11.2782
奈良県	-11.2783
ich	-11.2783
当初は	-11.2784
患者の	-11.2787
レル	-11.2788
暁	-11.2789
むかし	-11.279
謙	-11.279
といわれ	-11.2792
大気	-11.2793
責	-11.2795
ik	-11.2797
(2020	-11.2797
遊ぶ	-11.2797
書いてある	-11.2799
助教授	-11.2799
正式に	-11.28
互に	-11.28
phi	-11.2801
TC	-11.2803
館長	-11.2807
川崎	-11.2809
五年	-11.2809
というので	-11.281
刀を	-11.281
シング	-11.281
▁今後は	-11.2811
と言つて	-11.2811
書記	-11.2812
が挙げられる	-11.2812
求められる	-11.2813
01.	-11.2816
助は	-11.2821
アイテム	-11.2821
med	-11.2821
構築した	-11.2824
境内	-11.2824
小学	-11.2825
信長	-11.2825
dia	-11.2825
乞食	-11.2827
らく	-11.2828
ロイ	-11.2828
ばら	-11.2829
sta	-11.2829
を大きく	-11.283
変え	-11.2831
3-5	-11.2831
exp	-11.2831
陵	-11.2834
調達	-11.2834
ita	-11.2834
学校で	-11.2836
範	-11.2836
を着て	-11.2837
1965	-11.2839
ものですから	-11.2841
マッチング	-11.2841
学級	-11.2842
▁On	-11.2842
こともあります	-11.2845
アント	-11.2845
単位で	-11.2845
類の	-11.2846
を手に	-11.2847
の手紙	-11.2851
肯定	-11.2852
暮らす	-11.2853
子孫	-11.2853
塁	-11.2853
るよう	-11.2855
2-5	-11.2855
EX	-11.2856
向けに	-11.2857
集め	-11.2858
雇	-11.2858
インストール	-11.2859
rit	-11.286
したという	-11.286
されなかった	-11.286
の推定	-11.2862
PP	-11.2862
必然	-11.2863
受付時間	-11.2864
お考え	-11.2865
騎	-11.2865
柔	-11.2866
上海	-11.2868
わたしたち	-11.2869
▁all	-11.287
ないのである	-11.287
月下旬	-11.2871
多くの人	-11.2872
わせ	-11.2873
▁large	-11.2873
スコ	-11.2874
ヘッド	-11.2879
見せた	-11.2879
)=\	-11.288
篤	-11.288
修士	-11.2881
顔が	-11.2882
感じました	-11.2882
兆	-11.2883
▁HOME	-11.2884
mura	-11.2885
そこまで	-11.2885
Po	-11.2886
屋さん	-11.2889
数量	-11.2889
ビア	-11.289
Google	-11.289
選挙区	-11.2891
を持っていた	-11.2891
ern	-11.2891
らなかつた	-11.2891
の企画	-11.2891
上田	-11.2892
ふん	-11.2892
BO	-11.2893
が多かった	-11.2893
二人が	-11.2894
一切の	-11.2895
やつて	-11.2897
のいい	-11.29
国土	-11.29
誤解	-11.29
大体	-11.2901
ことが分かる	-11.2902
改造	-11.2906
凄	-11.2907
と見えて	-11.2907
なりました	-11.2908
に由来する	-11.2909
cy	-11.291
くさ	-11.2912
2.5	-11.2914
之助は	-11.2915
の方の	-11.2916
山形県	-11.2918
単語を	-11.2918
寄贈	-11.2919
鳴り	-11.2919
提携	-11.2921
お申し込みください	-11.2922
の魅力を	-11.2923
わった	-11.2923
シーズンは	-11.2925
天候	-11.2925
ランダム	-11.2927
きん	-11.2928
α	-11.2928
13:30	-11.2929
出口	-11.293
moto	-11.293
らして	-11.2931
昼食	-11.2931
風俗	-11.2934
▁[16]	-11.2937
庭園	-11.2937
ラウンド	-11.2938
駅から	-11.2939
終わる	-11.294
のかな	-11.294
を加えた	-11.294
給食	-11.2941
pre	-11.2941
多様性	-11.2941
であつて	-11.2942
返した	-11.2942
▁Qu	-11.2943
代理	-11.2943
週末	-11.2944
巡査	-11.2944
社会福祉	-11.2944
積極的な	-11.2944
よね	-11.2944
関与	-11.2947
1966	-11.2947
4-2	-11.2949
ース	-11.2949
火山	-11.295
彼方	-11.2951
の構成	-11.2951
落ちる	-11.2954
ばかりに	-11.2956
受取	-11.2956
を奪	-11.2956
客室	-11.2957
司法	-11.2958
ヤー	-11.2959
決算	-11.296
立候補	-11.2961
眼の	-11.2961
廿	-11.2962
見通し	-11.2962
量は	-11.2962
やしない	-11.2963
ならなかった	-11.2963
を元に	-11.2963
聴いて	-11.2964
と彼は	-11.2965
ぼくは	-11.2966
も含めて	-11.2966
に身を	-11.2966
カタ	-11.2966
はいつも	-11.2967
3,000	-11.2968
染め	-11.2968
を考えて	-11.2969
の音が	-11.297
▁1996	-11.2971
折れ	-11.2971
ドライブ	-11.2972
をご確認ください	-11.2973
▁2015.	-11.2974
行け	-11.2974
つめ	-11.2975
名人	-11.2975
寧ろ	-11.2976
の影響で	-11.2977
協力して	-11.2978
▁This	-11.298
茶屋	-11.2981
墓地	-11.2982
定期的に	-11.2982
せつ	-11.2983
前者	-11.2983
ゼル	-11.2983
▁中村	-11.2983
楊	-11.2985
なほ	-11.2986
誓	-11.2986
他人の	-11.2987
藪	-11.2987
中川	-11.2989
御覧	-11.2989
ようなこと	-11.299
怪しい	-11.2991
外れ	-11.2992
LP	-11.2992
空を	-11.2993
ないのです	-11.2993
tz	-11.2994
堪	-11.2994
這入	-11.2994
(2019	-11.2995
不満	-11.2996
ンダ	-11.2997
に直接	-11.2999
日本人の	-11.2999
さく	-11.3
刃	-11.3001
iki	-11.3002
往復	-11.3002
陸上	-11.3004
として活動	-11.3005
を代表する	-11.3005
第一に	-11.3009
1989	-11.301
社会保障	-11.301
どおり	-11.301
だわ	-11.301
キロ	-11.3011
家族の	-11.3011
の収集	-11.3011
ジャック	-11.3014
真の	-11.3016
薄い	-11.3016
のですから	-11.3017
自然科学	-11.3017
そり	-11.3017
希望者	-11.3017
にあります	-11.3017
人生の	-11.3018
才能	-11.3018
▁詳細	-11.3019
を加え	-11.3021
閣	-11.3022
もらいたい	-11.3024
疎	-11.3028
福井県	-11.3028
人だ	-11.3029
分けて	-11.303
MP	-11.3033
不良	-11.3033
てゆく	-11.3035
療養	-11.3036
消防団	-11.304
大量の	-11.304
賃	-11.304
欧米	-11.3042
取扱い	-11.3043
率いる	-11.3043
値を	-11.3044
、2011	-11.3044
山口県	-11.3045
法案	-11.3046
扱う	-11.3047
○	-11.3051
の湯	-11.3051
などから	-11.3052
最中	-11.3054
羽織	-11.3056
可能です	-11.3058
鹿児島県	-11.3058
改め	-11.3058
工房	-11.3058
ランプ	-11.3058
係数	-11.3059
オート	-11.3059
彫	-11.3059
盲	-11.306
eg	-11.306
Mo	-11.3061
ations	-11.3061
三月	-11.3061
起った	-11.3061
ばし	-11.3061
CL	-11.3062
おん	-11.3063
出生	-11.3063
内外	-11.3064
▁Ne	-11.3064
言語学	-11.3064
ach	-11.3065
考えている	-11.3068
臭い	-11.3069
桶	-11.3076
そのため	-11.3076
多言語	-11.3077
沙汰	-11.3078
(2017	-11.3079
日本では	-11.3079
立つて	-11.308
んば	-11.308
発注	-11.308
誰もが	-11.3082
通行	-11.3084
▁当日は	-11.3085
フォル	-11.3086
を選択	-11.3089
拳	-11.3089
で初めて	-11.309
に示す	-11.309
▁has	-11.3091
上部	-11.3092
客観的	-11.3092
筈だ	-11.3094
本稿	-11.3096
相撲	-11.3097
ことを目的として	-11.3097
語版	-11.3098
を受けている	-11.3098
照明	-11.31
友だち	-11.31
使用された	-11.3101
学習した	-11.3101
になってしまった	-11.3102
兵衛は	-11.3102
登場する	-11.3103
一軒	-11.3103
ごとく	-11.3104
詳細は	-11.3104
るのだ	-11.3104
乱れ	-11.3105
文学部	-11.3105
言葉は	-11.3106
row	-11.3106
ッター	-11.3109
н	-11.3109
たしか	-11.311
学校教育	-11.3112
経済学部	-11.3114
2.3	-11.3114
受けた	-11.3115
UP	-11.3116
可愛い	-11.3118
▁個	-11.3119
云えば	-11.3121
を開催し	-11.3122
詠	-11.3123
してほしい	-11.3123
だめ	-11.3124
下へ	-11.3124
今日も	-11.3126
共通の	-11.3126
、2012	-11.3126
お子さん	-11.3127
所在地	-11.3127
民主	-11.3128
通訳	-11.3129
隔	-11.3132
プレゼン	-11.3133
最優秀	-11.3133
するためには	-11.3133
こく	-11.3134
ミュ	-11.3134
わたしが	-11.3134
群馬県	-11.3134
やあ	-11.3135
音響	-11.3135
▁Par	-11.3135
遇	-11.3136
あう	-11.3139
ウイ	-11.3139
を思い	-11.314
雪が	-11.314
ともかく	-11.314
が含まれている	-11.3141
ボタン	-11.3143
まわ	-11.3143
光を	-11.3143
期間は	-11.3143
are	-11.3143
の抽出	-11.3143
ea	-11.3144
ぢやない	-11.3144
アニ	-11.3145
を選ぶ	-11.3147
夢中	-11.3148
までもなく	-11.3149
電話で	-11.315
DO	-11.315
三百	-11.3151
怪物	-11.3151
fer	-11.3152
全国大会	-11.3152
ゴミ	-11.3152
支払い	-11.3153
フェスタ	-11.3153
は皆	-11.3154
オープンキャンパス	-11.3155
頂いた	-11.3156
人たちが	-11.3157
着け	-11.3157
/5	-11.3158
化石	-11.316
茎	-11.316
通報	-11.3163
キャスト	-11.3164
▁↓	-11.3164
女に	-11.3164
悔	-11.3165
を選択する	-11.3166
理科	-11.3168
KE	-11.3168
斑	-11.3168
のほうが	-11.317
してもらう	-11.317
秦	-11.3171
同一の	-11.3173
寄せて	-11.3173
明記	-11.3174
IE	-11.3174
生れた	-11.3174
中でも	-11.3175
仮名	-11.3176
みれば	-11.3176
言葉に	-11.3177
に手を	-11.3177
るやうに	-11.3178
▁田中	-11.3178
譲渡	-11.3178
特殊な	-11.3182
かせて	-11.3182
祥	-11.3182
渡る	-11.3183
選び	-11.3185
稿	-11.3185
メタデータ	-11.3186
例外	-11.3187
▁7.	-11.3188
寢	-11.3188
競走	-11.319
するところ	-11.3191
有様	-11.3191
取り扱い	-11.3192
を行うため	-11.3193
なぁ	-11.3194
別途	-11.3195
示した	-11.3196
言いました	-11.3196
何事	-11.3197
たのである	-11.3197
FI	-11.3198
携帯	-11.3198
めく	-11.3199
トランス	-11.3199
手作り	-11.32
軽い	-11.3201
アレルギー	-11.3201
まね	-11.3201
わかりません	-11.3203
のあと	-11.3203
大字	-11.3203
を忘れ	-11.3205
法師	-11.3205
▁そうした	-11.3209
2.0	-11.3209
}$.	-11.3209
挟	-11.3211
縁側	-11.3212
星の	-11.3212
プロモーション	-11.3213
大地	-11.3214
いそ	-11.3215
写真を	-11.3215
cre	-11.3216
外へ	-11.3216
陸上競技	-11.3216
5.1	-11.3219
倶楽部	-11.322
を掲載しました	-11.322
IF	-11.3221
側から	-11.3221
を募集します	-11.3221
学的	-11.3221
人目	-11.3222
マシン	-11.3223
五人	-11.3223
飲食店	-11.3225
批評家	-11.3225
を計算する	-11.3225
メールで	-11.3226
と連携し	-11.3226
提灯	-11.3226
そこには	-11.3226
僅か	-11.3226
AA	-11.3229
コラボ	-11.323
大切	-11.323
処置	-11.3231
と呼ばれ	-11.3231
社会教育	-11.3231
わなかった	-11.3231
それより	-11.3232
のみが	-11.3234
にご	-11.3234
女性が	-11.3235
タス	-11.3235
国内の	-11.3236
讃	-11.3236
市議会	-11.3237
▁Multi	-11.3238
フロ	-11.3239
の判断	-11.3241
々として	-11.3243
決議	-11.3244
来ない	-11.3244
用いられている	-11.3245
(2021	-11.3246
歩兵	-11.3247
bra	-11.3247
スピ	-11.3248
企業が	-11.3248
集まり	-11.3249
▁参加費	-11.325
▁従って	-11.325
エリ	-11.3252
コート	-11.3255
と述べ	-11.3256
のタイトル	-11.3257
抱き	-11.3258
の権利	-11.3258
ura	-11.3259
彼も	-11.326
sion	-11.3262
IM	-11.3262
ブラウザ	-11.3262
その間	-11.3262
を扱う	-11.3264
し得る	-11.3266
▁種類	-11.3267
パパ	-11.3268
棄て	-11.3269
冒険	-11.3269
昼間	-11.3271
似た	-11.3272
輔	-11.3272
立た	-11.3273
ご来場	-11.3274
とは異なる	-11.3276
混ぜ	-11.3277
遊んで	-11.3277
河内	-11.3277
当センター	-11.3277
ムー	-11.3277
▁以上の	-11.3279
(2016	-11.3282
どっち	-11.3283
三つの	-11.3284
尺度	-11.3285
ワールドカップ	-11.3285
ノイズ	-11.3285
pic	-11.3285
烈	-11.3285
の見直し	-11.3285
等に関する	-11.3285
は以下の	-11.3288
宮城	-11.3289
朝食	-11.3289
必要があります	-11.3289
沈黙	-11.3291
箇	-11.3291
埼玉	-11.3292
旅客	-11.3292
1940	-11.3296
施工	-11.3296
▁Du	-11.3298
飛ぶ	-11.3299
足で	-11.3299
最上	-11.33
採点	-11.33
粒子	-11.3301
アイヌ	-11.3301
着く	-11.3302
▁実際に	-11.3303
載せ	-11.3303
爺	-11.3304
郊外	-11.3305
三郎は	-11.3305
ガイダンス	-11.3306
ori	-11.3307
▁Chang	-11.3307
クション	-11.3309
見当	-11.3311
付けて	-11.3311
上流	-11.3311
を目的として	-11.3312
前日	-11.3313
の計算	-11.3315
解け	-11.3315
を訪問	-11.3315
つづいて	-11.3316
que	-11.3318
を実施した	-11.3318
市川	-11.332
GO	-11.3322
その間に	-11.3323
合わせた	-11.3323
の価値	-11.3325
同期	-11.3326
用いる	-11.3326
納付	-11.3326
メジャー	-11.3328
を広げ	-11.3328
ライター	-11.3329
しゅ	-11.333
密度	-11.3331
携	-11.3331
のではないでしょうか	-11.3332
発電所	-11.3332
周知	-11.3333
求	-11.3334
さり	-11.3335
母さん	-11.3336
縛	-11.3336
言葉で	-11.3337
同日	-11.3337
っております	-11.3339
の提案	-11.334
やりたい	-11.3341
てしまいました	-11.3343
艦隊	-11.3345
買って	-11.3346
tri	-11.3347
をリリース	-11.3348
出している	-11.3348
のもとに	-11.3349
孤独	-11.335
ガーデン	-11.335
路を	-11.3353
恰好	-11.3353
色彩	-11.3353
そんな事	-11.3353
ser	-11.3354
後方	-11.3355
避難所	-11.3355
付けられた	-11.3357
の一種	-11.3357
lation	-11.3358
後日	-11.3358
キャプション	-11.3359
居りました	-11.336
▁本作は	-11.3361
製造業	-11.3361
たっぷり	-11.3366
忙しい	-11.3367
掻き	-11.3369
北区	-11.337
その後の	-11.337
を確認する	-11.337
伯父	-11.3373
穏	-11.3377
を通じた	-11.3377
おもしろ	-11.338
ログイン	-11.338
苦し	-11.3382
侵入	-11.3382
ちや	-11.3384
今から	-11.3385
合わ	-11.3386
気の毒	-11.3386
東アジア	-11.3386
風邪	-11.3387
秩序	-11.3388
下部	-11.3389
を伴う	-11.339
部下	-11.3391
田町	-11.3393
本書	-11.3394
細かい	-11.3394
ew	-11.3396
続けている	-11.3396
メカニズム	-11.3397
EP	-11.34
小倉	-11.34
kin	-11.3401
を除き	-11.3403
cal	-11.3404
排除	-11.3404
揺れ	-11.3404
CP	-11.3405
っていう	-11.3405
ハラ	-11.3405
為め	-11.3408
の仕組み	-11.3408
の建設	-11.3408
界の	-11.3409
到	-11.3409
▁開催日	-11.3409
▁Inter	-11.3409
歌舞伎	-11.3411
一貫	-11.3411
っけ	-11.3412
向こう	-11.3412
事件の	-11.3414
を感じて	-11.3414
を実現する	-11.3414
方法について	-11.3416
プロデュース	-11.3417
上京	-11.3417
伺い	-11.3418
under	-11.3418
シナ	-11.3419
フォト	-11.3421
議事	-11.3421
とりわけ	-11.3422
1930	-11.3422
師の	-11.3422
青森県	-11.3426
飲	-11.3426
SHI	-11.3428
が難しい	-11.3428
生成した	-11.3432
▁なぜなら	-11.3432
私たちが	-11.3433
瞳	-11.3434
怠	-11.3435
実際には	-11.3436
込まれ	-11.3436
そろそろ	-11.3436
の様子を	-11.3437
到達	-11.3438
高度な	-11.3439
解き	-11.3439
に当たって	-11.3439
居て	-11.344
公務員	-11.344
のちに	-11.344
──	-11.3441
貸し	-11.3444
が発表された	-11.3444
ライセンス	-11.3444
経験を	-11.3445
立てて	-11.3449
way	-11.345
シェル	-11.345
ナショナル	-11.345
母が	-11.345
ておく	-11.3451
をお願い	-11.3451
航空機	-11.3454
確実に	-11.3454
広島市	-11.3454
秘書	-11.3454
AV	-11.3456
べきである	-11.3456
ーション	-11.3457
時頃	-11.3458
民主党	-11.3459
を送って	-11.3459
しげ	-11.346
現れた	-11.3462
我が国	-11.3462
といいます	-11.3463
所有者	-11.3463
ほうが	-11.3464
タスクで	-11.3465
初回	-11.3465
ことにした	-11.3466
この点	-11.3467
鳥の	-11.3467
を超えて	-11.3467
きゅう	-11.3467
車を	-11.3472
覚えて	-11.3472
開通	-11.3472
ISS	-11.3473
開いた	-11.3473
ことがない	-11.3473
連れて	-11.3473
同僚	-11.3474
どうなる	-11.3475
low	-11.3475
所在	-11.3478
致し	-11.3478
イド	-11.348
月刊	-11.3481
浴	-11.3482
RNA	-11.3483
年代の	-11.3483
nu	-11.3483
小規模	-11.3483
▁タグ	-11.3487
無視	-11.3487
という点	-11.3488
aka	-11.3492
pri	-11.3493
具合	-11.3495
英文	-11.3497
充実した	-11.3498
咲き	-11.3499
圓	-11.3501
描	-11.3501
を希望する	-11.3502
でもあり	-11.3503
大きさ	-11.3503
このたび	-11.3504
ロバート	-11.3504
位で	-11.3505
長い間	-11.3505
釈	-11.3506
1962	-11.3508
ここでは	-11.3509
企画展	-11.3509
次いで	-11.351
インフルエンザ	-11.3511
汚染	-11.3511
寒さ	-11.3512
コウ	-11.3513
却って	-11.3513
まもなく	-11.3513
▁Resources	-11.3514
兎	-11.3516
わた	-11.3516
潰	-11.3517
言を	-11.3518
つたり	-11.3519
近づく	-11.3519
退屈	-11.3519
〻	-11.352
藤田	-11.352
エッ	-11.352
オープニング	-11.3521
それらを	-11.3523
▁do	-11.3527
るのである	-11.3528
^{2}	-11.3528
を披露	-11.3528
源氏	-11.3529
之丞	-11.353
の議論	-11.353
聞かせ	-11.353
▁Go	-11.3531
cer	-11.3532
を訪れ	-11.3533
▁これで	-11.3534
word	-11.3535
ひし	-11.3535
その上に	-11.3536
お前が	-11.3538
興行	-11.3539
依然として	-11.3539
クラシック	-11.354
綾	-11.3541
/6	-11.3542
tan	-11.3542
任意の	-11.3542
件の	-11.3543
で行う	-11.3543
イア	-11.3544
NC	-11.3546
～17	-11.3546
武田	-11.3547
叱	-11.3547
rc	-11.3548
口座	-11.355
一週間	-11.355
シテ	-11.3551
リサーチ	-11.3551
全面	-11.3552
大島	-11.3553
主観	-11.3553
quad	-11.3554
べて	-11.3554
の悪い	-11.3555
kai	-11.3556
表彰式	-11.3557
を眺め	-11.3558
になりたい	-11.3558
▁Open	-11.3558
三浦	-11.3559
抜いて	-11.356
▁Si	-11.356
モール	-11.356
ヽ	-11.3562
ities	-11.3564
というものが	-11.3564
ログ	-11.3565
咳	-11.3565
フィードバック	-11.3565
開会	-11.3567
復習	-11.3568
そこを	-11.3568
自己の	-11.357
酸素	-11.357
ラク	-11.3571
1963	-11.3573
17:00	-11.3573
マリー	-11.3573
並べ	-11.3575
隱	-11.3576
終り	-11.3577
やってきた	-11.3578
コントロール	-11.3578
枚の	-11.3579
然し	-11.3579
ローカル	-11.358
大切に	-11.358
勿論	-11.358
オイ	-11.3581
おれの	-11.3585
ローン	-11.3585
火鉢	-11.3586
ご利用ください	-11.3589
言わ	-11.3589
育ち	-11.3591
一丁目	-11.3591
▁corpus	-11.3593
一時間	-11.3593
全員が	-11.3593
わしい	-11.3595
私立	-11.3597
▁子育て	-11.3597
～12	-11.3598
関税	-11.3598
出品	-11.3599
に関する法律	-11.36
可愛	-11.36
勲	-11.3601
に入社	-11.3601
を越えて	-11.3603
リップ	-11.3604
捨てて	-11.3604
末に	-11.3607
ティック	-11.3608
のほうへ	-11.361
02.	-11.3611
あつ	-11.3611
代わりに	-11.3611
dic	-11.3612
2-7	-11.3612
排出	-11.3614
参り	-11.3614
ah	-11.3615
衝	-11.3617
_{1}	-11.3618
煩	-11.3619
▁そこへ	-11.362
ウー	-11.3621
日本国内	-11.3623
mod	-11.3623
大野	-11.3623
デバイス	-11.3623
をきっかけに	-11.3623
に関心	-11.3624
狼	-11.3627
始まった	-11.3627
顔を見	-11.3627
それじゃ	-11.3627
の最初の	-11.3628
р	-11.3628
総括	-11.3629
申告	-11.3629
を実施しています	-11.363
んや	-11.3633
却	-11.3635
融	-11.3636
▁今年は	-11.364
シナリオ	-11.3642
るる	-11.3643
は主に	-11.3643
在学中	-11.3644
色に	-11.3644
不快	-11.3644
を考慮する	-11.3645
過ごす	-11.3645
謂	-11.3646
市民の	-11.3646
コム	-11.3646
譜	-11.3646
伝わる	-11.3646
▁過去の	-11.3646
いこう	-11.3646
を継続	-11.3646
いかない	-11.3647
学士	-11.3648
▁所在地	-11.3648
ful	-11.3648
おもしろい	-11.3649
パーティー	-11.365
せられて	-11.3651
ができます	-11.3651
クラウド	-11.3652
接種	-11.3653
英雄	-11.3653
状の	-11.3656
歓	-11.3656
アナウンサー	-11.3656
ハート	-11.3657
突っ	-11.3657
を必要とする	-11.3657
休館日	-11.3658
関係機関	-11.366
痩せ	-11.3661
をなす	-11.3663
の練習	-11.3663
ひて	-11.3664
のに対し	-11.3665
部署	-11.3665
研究機関	-11.3666
ストリート	-11.3667
仕上げ	-11.3668
個体	-11.3669
▁Model	-11.3672
の活性化	-11.3675
に至って	-11.3675
一度も	-11.3675
関連する	-11.3675
!!!	-11.3675
2-4	-11.3675
の立場	-11.3676
発送	-11.3677
近藤	-11.3678
モリ	-11.3678
分かり	-11.3679
が掲載され	-11.3679
物資	-11.3679
GP	-11.368
ゾン	-11.368
信頼性	-11.368
程の	-11.3681
mit	-11.3681
タール	-11.3682
山下	-11.3682
用心	-11.3683
なにも	-11.3691
作業者	-11.3691
の展示	-11.3692
ミーティング	-11.3692
.\	-11.3692
終わった	-11.3693
を表示	-11.3693
ひた	-11.3694
JST	-11.3694
まとめる	-11.3697
人たちは	-11.3698
主人は	-11.3699
もあって	-11.3699
▁小林	-11.3699
する際に	-11.3699
藝	-11.37
ねばならない	-11.37
短期	-11.3701
いん	-11.3701
といふもの	-11.3702
ランダムに	-11.3703
皮肉	-11.3705
▁»	-11.3706
農地	-11.3707
▁Joint	-11.3707
観光客	-11.3707
通算	-11.3707
フード	-11.3707
通る	-11.3708
スライド	-11.3708
形容詞	-11.3708
定数	-11.371
月曜	-11.371
複	-11.3711
五輪	-11.3713
近所	-11.3714
の記憶	-11.3715
を受賞	-11.3716
餘	-11.3717
ted	-11.3717
夫妻	-11.3717
伝統的な	-11.3717
味噌	-11.3718
▁©	-11.3719
}}}	-11.3719
びた	-11.372
刈	-11.3725
率が	-11.3726
棲	-11.3726
ていきたい	-11.3726
パスワード	-11.3727
を支え	-11.3727
▁generation	-11.373
かということ	-11.3731
ご覧いただけます	-11.3731
らずに	-11.3732
ボーイ	-11.3733
先発	-11.3734
の制作	-11.3734
▁Long	-11.3734
の情報を	-11.3735
▁私たちは	-11.3735
実施している	-11.3735
クリア	-11.3735
署	-11.3736
お手	-11.3736
3-4	-11.3736
凡て	-11.3737
▁System	-11.3737
↓	-11.3737
ったもの	-11.3738
短縮	-11.3738
語句	-11.3739
まつて	-11.3739
ign	-11.3739
ock	-11.374
點	-11.374
変わる	-11.3741
通った	-11.3741
百合	-11.3741
梶	-11.3743
損傷	-11.3743
なんで	-11.3744
デコーダ	-11.3745
修復	-11.3746
を失った	-11.3747
アスリート	-11.3748
何處	-11.3749
爾	-11.3749
春日	-11.3751
をかけた	-11.3752
ator	-11.3753
妨げ	-11.3755
福岡市	-11.3755
▁Hu	-11.3758
納得	-11.3758
ひとつの	-11.3759
上級	-11.376
五日	-11.3762
レーベル	-11.3763
さげ	-11.3765
デンマーク	-11.3767
3%	-11.3767
を目的とした	-11.3768
を活用し	-11.3768
よほど	-11.377
出入り	-11.377
ばせ	-11.377
ハワイ	-11.377
注釈	-11.377
実施された	-11.3771
シップ	-11.3773
与える	-11.3774
女子大学	-11.3774
見せる	-11.3774
お聞き	-11.3775
を避け	-11.3775
喚	-11.3776
障	-11.3776
ちっとも	-11.3777
或いは	-11.3777
フリ	-11.3777
cap	-11.3777
数十	-11.378
余地	-11.378
窓の	-11.3782
やって来た	-11.3782
を占め	-11.3783
スコットランド	-11.3783
3-3	-11.3783
日に行われた	-11.3784
▁我々は	-11.3784
卜	-11.3787
前作	-11.3787
にあたっては	-11.3788
無償	-11.3789
の共同	-11.3792
食べた	-11.3793
課題解決	-11.3794
細工	-11.3795
お送り	-11.3796
score	-11.3797
4-5	-11.3798
と指摘	-11.3799
恨	-11.38
夫が	-11.38
交際	-11.3801
od	-11.3801
今や	-11.3802
納め	-11.3802
設	-11.3803
の製造	-11.3804
奴隷	-11.3804
有効な	-11.3805
効果的な	-11.3805
FM	-11.3805
des	-11.3807
錠	-11.3808
わって	-11.3808
のごとき	-11.3811
動いて	-11.3812
ボス	-11.3812
ないよう	-11.3812
▁July	-11.3813
ようす	-11.3813
Dr	-11.3813
グルメ	-11.3815
さか	-11.3815
▁女は	-11.3815
▁3.3	-11.3817
140	-11.3818
よろしくお願いいたします	-11.3819
小山	-11.3819
挙げられ	-11.382
と思いますが	-11.3821
匂い	-11.3821
▁そのために	-11.3821
入れる	-11.3826
燕	-11.3826
エージェント	-11.3826
願います	-11.3828
語学	-11.3828
半年	-11.3829
連隊	-11.3829
をうけ	-11.383
Trans	-11.3832
-24	-11.3832
結果を表	-11.3833
並び	-11.3833
確立	-11.3834
▁image	-11.3834
ps	-11.3835
調節	-11.3835
ご希望	-11.3835
は全て	-11.3836
á	-11.3836
を活用して	-11.3837
▁Ri	-11.3837
が開催され	-11.3837
キュー	-11.3838
差異	-11.3838
エレ	-11.3839
市政	-11.3839
麓	-11.3839
ability	-11.3839
物件	-11.384
だろうと	-11.3841
原文	-11.3843
ッサ	-11.3844
研究では	-11.3845
であることが	-11.3845
一人ひとり	-11.3847
わき	-11.3847
人種	-11.3847
塞	-11.3848
完	-11.3849
任期	-11.3851
入会	-11.3851
乃至	-11.3853
に達した	-11.3854
振り返り	-11.3854
見込み	-11.3855
▁system	-11.3857
▁sub	-11.3857
愛知	-11.3859
ピーター	-11.3861
髪を	-11.3862
ぼろ	-11.3862
医療費	-11.3863
て下さい	-11.3863
くま	-11.3863
但し	-11.3864
mathscr	-11.3865
るのか	-11.3866
汚れ	-11.3867
中です	-11.3867
圭	-11.3867
非常	-11.3869
取れ	-11.3871
ふさ	-11.3872
装備	-11.3872
▁Un	-11.3873
sing	-11.3873
LS	-11.3874
オリンピックの	-11.3876
適切に	-11.3876
かのように	-11.3876
切る	-11.3877
▁今日の	-11.3878
摩	-11.3878
まく	-11.3879
期生	-11.388
せっかく	-11.3881
入賞	-11.3881
会い	-11.3882
内容について	-11.3883
いますが	-11.3883
の要素	-11.3883
処に	-11.3884
ていった	-11.3886
聖書	-11.3886
太刀	-11.3886
擬似	-11.3888
込まれた	-11.3888
生じる	-11.3888
IV	-11.3888
見よう	-11.3889
キリスト	-11.3889
CI	-11.3889
特典	-11.389
惚れ	-11.3891
反乱	-11.3891
、2010	-11.3891
を挙げた	-11.3892
役所	-11.3892
むき	-11.3893
賞を受賞した	-11.3893
其処	-11.3894
本塁打	-11.3895
畠	-11.3895
/10/	-11.3896
サブワード	-11.3897
ML	-11.3898
ティス	-11.39
集まって	-11.39
を検討する	-11.3901
仮想	-11.3902
駆	-11.3902
なければならなかった	-11.3902
を見ながら	-11.3903
の促進	-11.3904
を作成した	-11.3905
くなつた	-11.3905
元気に	-11.3907
知った	-11.3907
を果たす	-11.3908
単独	-11.3911
ix	-11.3912
がついて	-11.3913
のところに	-11.3913
▁東日本大震災	-11.3914
が始まり	-11.3916
ture	-11.3916
洋服	-11.3917
ave	-11.3918
bar	-11.392
)=	-11.3921
について述べる	-11.3921
慰め	-11.3922
給与	-11.3923
ゆえに	-11.3923
目録	-11.3924
破れ	-11.3925
ニス	-11.3926
▁1980	-11.3927
が強く	-11.3928
償	-11.3929
出走	-11.393
上陸	-11.393
本論文	-11.3931
の皆様に	-11.3931
んぼ	-11.3932
九月	-11.3933
柴	-11.3933
臺	-11.3933
彼女に	-11.3934
時間帯	-11.3935
グラウンド	-11.3935
浪人	-11.3935
《	-11.3935
間接	-11.3936
って行く	-11.3938
+1	-11.3939
挙げ	-11.3939
いるので	-11.394
醜	-11.394
道場	-11.394
あわ	-11.3941
抗議	-11.3942
生きた	-11.3942
起る	-11.3943
そのために	-11.3943
方言	-11.3945
笑う	-11.3945
環境省	-11.3946
後者	-11.3946
歩行	-11.3947
同窓会	-11.3947
補完	-11.3947
\}	-11.3948
を踏まえて	-11.3948
で構成され	-11.3948
何より	-11.3949
ちよつと	-11.3949
を整え	-11.395
ris	-11.395
ファイル名	-11.395
含まれている	-11.3951
に取り組んで	-11.3952
0.9	-11.3952
休止	-11.3953
▁between	-11.3955
予定である	-11.3956
回路	-11.3956
浮き	-11.3956
昇格	-11.3957
輝く	-11.3957
ヴィー	-11.3959
仕掛け	-11.3961
ッカ	-11.3961
を開発し	-11.3961
合流	-11.3962
共産党	-11.3963
あんなに	-11.3963
ことができない	-11.3963
申し出	-11.3965
不審	-11.3966
好意	-11.3967
体力	-11.3967
頼む	-11.3969
に影響	-11.3969
ロシア語	-11.3969
したいと思います	-11.397
辞典	-11.397
きいた	-11.3972
だということ	-11.3974
足り	-11.3975
発揮	-11.3975
慶應義塾大学	-11.3976
産地	-11.3976
もよい	-11.3977
レール	-11.3977
▁《	-11.3978
支度	-11.3978
lic	-11.3978
りゃ	-11.3979
国際協力	-11.3979
去り	-11.3979
イカ	-11.398
評価結果	-11.3982
溜	-11.3984
復元	-11.3985
資料館	-11.3988
帰宅	-11.3989
がん検診	-11.3989
イベント情報	-11.399
習得	-11.399
東日本	-11.3991
ギリシャ	-11.3992
おなじ	-11.3992
消滅	-11.3992
拙者	-11.3993
収容	-11.3994
岩手	-11.3995
酵素	-11.3995
メリ	-11.3996
▁それも	-11.3996
ひょ	-11.3996
全米	-11.3997
任命	-11.3998
取りまとめ	-11.3998
スリ	-11.4002
ミックス	-11.4002
▁[17]	-11.4002
を遂げ	-11.4004
ほとんどの	-11.4005
LLM	-11.4005
相談会	-11.4005
ドクター	-11.4005
ヘイ	-11.4005
ギリシア	-11.4006
統制	-11.4006
表層	-11.4006
▁サイズ	-11.4007
▁question	-11.4007
5000	-11.4007
ちゅう	-11.4008
いきたい	-11.4008
聞こえ	-11.4008
月中旬	-11.4009
中島	-11.4011
行かない	-11.4014
を達成	-11.4014
真面目	-11.4015
著しく	-11.4017
量が	-11.4017
消費税	-11.4019
天地	-11.402
革	-11.402
が出来る	-11.4022
排	-11.4022
ましたので	-11.4024
した時	-11.4025
身体を	-11.4026
税込	-11.4028
みんなが	-11.4028
僕に	-11.4028
覗いて	-11.4029
新田	-11.4029
leq	-11.403
以外にも	-11.403
明示	-11.4031
uk	-11.4031
お酒	-11.4031
する際	-11.4032
▁words	-11.4032
レク	-11.4033
～11	-11.4037
コンクリート	-11.4039
und	-11.4039
が生じる	-11.4039
To	-11.404
を発見した	-11.404
心がけ	-11.4042
案外	-11.4045
アイス	-11.4045
夫人の	-11.4046
ous	-11.4047
実験結果	-11.4048
四月	-11.4049
いかん	-11.4049
ではありませんか	-11.4049
▁・「	-11.4051
魅	-11.4051
▁謝辞	-11.4053
▁1994	-11.4054
火事	-11.4054
公社	-11.4054
おもてなし	-11.4054
解体	-11.4055
網羅	-11.4055
どの程度	-11.4056
盃	-11.4058
ちゃんは	-11.4058
話し合い	-11.4059
持続	-11.4059
ウッド	-11.4059
テニス	-11.4059
管轄	-11.4062
もんだ	-11.4062
を付与する	-11.4063
ことなく	-11.4063
撫	-11.4064
Br	-11.4064
事柄	-11.4066
箱根	-11.4066
方がいい	-11.4068
ブス	-11.4069
ものだから	-11.4071
子供を	-11.4071
着用	-11.4072
慕	-11.4072
になっても	-11.4074
滋賀県	-11.4074
を紹介し	-11.4074
と云い	-11.4074
エール	-11.4075
イエス	-11.4078
胴	-11.4078
ポップ	-11.4079
08.	-11.408
KU	-11.408
と申す	-11.4083
もあれば	-11.4084
EE	-11.4084
訊いた	-11.4085
から約	-11.4087
判明	-11.4087
たつ	-11.4087
使命	-11.4088
つながる	-11.4091
の墓	-11.4092
ていなかった	-11.4094
鷲	-11.4095
集約	-11.4096
子供は	-11.4096
ED	-11.4097
勉強会	-11.4097
形態素解析	-11.4097
を記録し	-11.4097
山梨県	-11.4097
とは何か	-11.4098
金曜	-11.41
引き上げ	-11.4101
耐	-11.4101
の選択	-11.4102
ame	-11.4102
を明らかにする	-11.4102
の活躍	-11.4102
四年	-11.4103
据え	-11.4103
難しく	-11.4105
登り	-11.4106
起源	-11.4107
すべく	-11.4108
等により	-11.4108
こめ	-11.4109
の内部	-11.4109
を迎えた	-11.4111
しず	-11.4112
も無い	-11.4113
背後	-11.4114
発生する	-11.4115
売れ	-11.4116
するので	-11.4119
侵攻	-11.4119
タイプの	-11.4119
への影響	-11.4119
午	-11.4119
18:00	-11.412
晃	-11.412
ことのない	-11.4121
誰にも	-11.4122
有効である	-11.4122
▁analysis	-11.4123
奨励	-11.4123
に選出された	-11.4124
警部	-11.4124
0.2	-11.4124
バレーボール	-11.4124
ポル	-11.4125
ウィーン	-11.4125
定めた	-11.4127
末期	-11.4127
初日	-11.4127
いたら	-11.4128
ゐない	-11.4128
そんなことは	-11.4128
の動向	-11.4129
倉庫	-11.4129
をつく	-11.4131
一見	-11.4133
部落	-11.4134
することになった	-11.4136
は同じ	-11.4136
キシ	-11.4136
大事に	-11.4136
bin	-11.4137
大規模言語モデル	-11.4138
船長	-11.4138
ライス	-11.4139
きれいな	-11.4139
ロゴ	-11.4141
に乗	-11.4141
ご理解	-11.4142
米友	-11.4142
総理	-11.4143
を積極的に	-11.4143
ヨー	-11.4145
していただきました	-11.4146
を抱いて	-11.4147
学生たち	-11.4148
リカ	-11.4148
岐	-11.4149
の推移	-11.4151
略称	-11.4152
事後	-11.4153
の機会	-11.4156
うえ	-11.4157
知っていた	-11.4158
人として	-11.4159
かせる	-11.4159
年前に	-11.4162
フト	-11.4162
さすが	-11.4162
身長	-11.4162
体が	-11.4163
様子を	-11.4165
の生産	-11.4167
算出	-11.4167
待っている	-11.417
用品	-11.417
彼女を	-11.417
きこえ	-11.4171
侵害	-11.4172
それ以上	-11.4172
PT	-11.4172
LR	-11.4173
品川	-11.4173
new	-11.4174
ディス	-11.4174
方には	-11.4175
與	-11.4176
なくとも	-11.4176
寧	-11.4176
焦点	-11.4177
ゾーン	-11.4178
権限	-11.4178
聽	-11.418
を集め	-11.4183
▁Wu	-11.4184
異なります	-11.4186
愛称	-11.4187
1947	-11.4188
▁今後も	-11.4189
下流	-11.4189
ツーリズム	-11.419
浄	-11.419
の無い	-11.419
誤差	-11.4192
あの時	-11.4192
好奇心	-11.4192
vol	-11.4193
商工会議所	-11.4193
田さん	-11.4194
捧げ	-11.4196
ゃ	-11.4197
街の	-11.4197
錯	-11.4197
開く	-11.4197
考えます	-11.4197
4.0	-11.4198
DF	-11.4199
を開いて	-11.4199
急速に	-11.4199
於	-11.4199
きき	-11.4199
精度が	-11.42
はすでに	-11.42
をそのまま	-11.42
現れる	-11.4201
マーケット	-11.4202
▁Chi	-11.4203
保育所	-11.4203
望遠鏡	-11.4204
敵の	-11.4204
▁Per	-11.4206
豪雨	-11.4206
抱え	-11.4206
喉	-11.4206
適合率	-11.4206
美しさ	-11.4207
NG	-11.4207
タワー	-11.4209
の顔を見	-11.4209
の里	-11.421
の仲間	-11.4211
にとっても	-11.4211
ったのは	-11.4212
▁Tel	-11.4214
5-3	-11.4216
媒体	-11.4216
選手権大会	-11.4217
加減	-11.4218
チャート	-11.4218
vec	-11.4218
並列	-11.4219
用法	-11.4221
アリーナ	-11.4222
を決定する	-11.4223
雛	-11.4223
証言	-11.4224
数多くの	-11.4227
を知らない	-11.4227
納税	-11.4228
すばらしい	-11.4228
-08	-11.4229
をいう	-11.423
主催者	-11.423
掴	-11.423
ことを示す	-11.4231
作曲家	-11.4231
こない	-11.4232
住む	-11.4235
作って	-11.4236
イング	-11.4237
吾々	-11.4239
激しく	-11.424
■	-11.424
助教	-11.4241
まいりました	-11.4242
特定非営利活動法人	-11.4243
が始まった	-11.4244
放送局	-11.4245
1920	-11.4245
都内	-11.4246
に生まれた	-11.4246
の上から	-11.4246
受講生	-11.4248
バリアフリー	-11.4248
ロケット	-11.425
平等	-11.425
▁ツイート	-11.4253
掲げ	-11.4254
師団	-11.4255
▁父は	-11.4255
鞍	-11.4255
を一つ	-11.4257
楽しむ	-11.4258
姿が	-11.4258
質量	-11.4259
火星	-11.4259
化け	-11.4261
のじゃ	-11.4262
ように見える	-11.4263
行っています	-11.4264
樣子	-11.4264
を確認し	-11.4267
隊長	-11.4267
棺	-11.4267
めえ	-11.4269
ツァ	-11.4269
十月	-11.427
つても	-11.4273
▁2014.	-11.4273
▁そのような	-11.4277
位置づけ	-11.4279
zu	-11.4279
スコット	-11.428
近江	-11.428
薬剤	-11.428
ds	-11.428
あわせ	-11.4283
をご覧	-11.4283
出店	-11.4284
どれだけ	-11.4286
真に	-11.4287
分科会	-11.4287
に選ばれた	-11.4288
しまいます	-11.4288
思ひ出	-11.4288
石垣	-11.4289
瀬戸	-11.429
少年は	-11.429
頻繁に	-11.4292
▁Cha	-11.4292
.........	-11.4294
の一つとして	-11.4295
ジオ	-11.4295
最後まで	-11.4296
ino	-11.4297
返り	-11.4297
語順	-11.4298
貼	-11.4298
古川	-11.4298
▁Sha	-11.4299
の講義	-11.4301
安全な	-11.4304
下宿	-11.4304
で行われる	-11.4304
ではないが	-11.4304
を決める	-11.4304
三菱	-11.4304
わかりやすく	-11.4305
▁editors	-11.4306
補給	-11.4308
クリック	-11.4308
院の	-11.4309
メモ	-11.4311
係り受け	-11.4312
あがった	-11.4312
SL	-11.4313
両手を	-11.4313
スラ	-11.4314
のあった	-11.4317
品種	-11.4317
わぬ	-11.4317
現在では	-11.4318
蒸	-11.4318
検事	-11.4319
罵	-11.4319
らねえ	-11.4319
CG	-11.4319
テープ	-11.432
▁あなたの	-11.4321
圧縮	-11.4322
答える	-11.4323
テラス	-11.4325
るのを	-11.4327
子どもたちが	-11.4327
四季	-11.4327
獅子	-11.4328
宵	-11.4328
と言われ	-11.4328
確信	-11.4328
DB	-11.4329
困難である	-11.4331
お手伝い	-11.4331
濡れ	-11.4331
袴	-11.4332
戸籍	-11.4334
獨	-11.4335
いろいろの	-11.4335
せき	-11.4335
尤も	-11.4335
ベラ	-11.4335
夕食	-11.4336
八戸	-11.4337
図書室	-11.4338
◆	-11.4339
出かけて	-11.434
を止め	-11.434
を更新しました	-11.4342
なくてはならない	-11.4342
前身	-11.4344
ized	-11.4345
の姿を	-11.4345
豊富	-11.4346
コンメンタール	-11.4347
有意	-11.4348
単純	-11.4349
あふれる	-11.4349
になろう	-11.435
取り組んで	-11.4351
その男	-11.4351
を設立	-11.4352
ICE	-11.4353
天才	-11.4354
ノウハウ	-11.4355
つれ	-11.4355
いずれの	-11.4355
/7	-11.4356
エンド	-11.4357
クリーム	-11.4359
af	-11.4359
(2015	-11.436
應	-11.4361
プー	-11.4361
様が	-11.4362
\}@	-11.4363
マンション	-11.4363
日米	-11.4363
年後の	-11.4363
の強い	-11.4363
以前は	-11.4365
したがって	-11.4366
与えられる	-11.4368
level	-11.4369
からのお知らせ	-11.4369
確か	-11.4369
をご紹介します	-11.4373
最適な	-11.4373
ってくれ	-11.4373
AB	-11.4376
の物語	-11.4376
写真は	-11.4377
へ行った	-11.4378
YA	-11.4378
自治会	-11.4379
きれ	-11.4379
逃れ	-11.4379
を行うことで	-11.4382
があるか	-11.4382
過程で	-11.4383
如き	-11.4383
食料	-11.4384
OM	-11.4385
の実践	-11.4385
PM	-11.4387
を開き	-11.4387
はずだ	-11.4388
地理	-11.4388
に移り	-11.439
▁COVID	-11.439
がございます	-11.4391
としたら	-11.4392
3000	-11.4392
0.7	-11.4392
庭に	-11.4392
中核	-11.4392
枯れ	-11.4392
貧困	-11.4393
訪れる	-11.4393
展示室	-11.4394
▁これらは	-11.4395
故障	-11.4397
足が	-11.4397
忠実	-11.4397
を打	-11.4398
お電話	-11.4398
▁−	-11.4399
完成した	-11.4399
BCCWJ	-11.4399
実在	-11.44
光る	-11.44
▁high	-11.4401
1958	-11.4403
部分を	-11.4404
san	-11.4405
どんなこと	-11.4406
mann	-11.4407
精神的	-11.4408
dr	-11.4408
大勢	-11.4409
定義する	-11.4409
行動を	-11.441
と同様の	-11.4411
基本方針	-11.4411
ビッグ	-11.4411
社会主義	-11.4412
到底	-11.4413
トライ	-11.4414
▁Xu	-11.4415
を突き	-11.4416
自由な	-11.4416
かも知れぬ	-11.4416
他方	-11.4416
授	-11.4418
かたち	-11.4418
▁NEWS	-11.4421
残って	-11.4421
君も	-11.4422
▁results	-11.4422
を伝え	-11.4422
ありて	-11.4423
花火	-11.4424
行方	-11.4426
お菓子	-11.4426
さんから	-11.4427
を挙げて	-11.4428
が流れ	-11.4429
地域住民	-11.4429
ナリ	-11.443
働き方	-11.4431
時から午後	-11.4432
様々	-11.4433
▁こんにちは	-11.4436
遠征	-11.4437
云え	-11.4437
の間を	-11.4438
atsu	-11.4439
建て	-11.444
述べる	-11.4441
変った	-11.4441
一九	-11.4442
先へ	-11.4444
ジェンダー	-11.4446
みたいに	-11.4446
RSY	-11.4446
規模の	-11.4446
意地	-11.4446
スマホ	-11.4448
社会学	-11.4449
遍	-11.4449
与え	-11.445
美味	-11.4452
に資する	-11.4453
レベルで	-11.4454
君と	-11.4455
知的	-11.4457
穿	-11.4458
飲食	-11.4458
ven	-11.446
はいない	-11.4461
160	-11.4461
しますので	-11.4462
1961	-11.4463
と思っております	-11.4464
チャンピオン	-11.4464
天文	-11.4466
幹部	-11.4467
今年は	-11.4467
カトリック	-11.4468
▁1992	-11.447
ことはありません	-11.4471
ジェイ	-11.4472
が始まる	-11.4476
領土	-11.4476
に関し	-11.4477
更なる	-11.4477
帰って来た	-11.4478
どちらか	-11.4478
ったまま	-11.4478
方策	-11.448
平次の	-11.448
蒲団	-11.4481
絆	-11.4481
を果たし	-11.4482
をもち	-11.4482
▁とにかく	-11.4483
げる	-11.4486
このように	-11.4487
二十五	-11.4487
制作した	-11.4487
を持た	-11.4488
下りて	-11.4488
:2023	-11.4488
ウォ	-11.4489
出される	-11.4489
エラ	-11.4489
▁実験結果	-11.4489
の舞台	-11.449
母子	-11.449
嶺	-11.449
こり	-11.4491
部位	-11.4491
山岳	-11.4492
一緒	-11.4493
もらいました	-11.4494
と云	-11.4495
その夜	-11.4496
イェ	-11.4496
900	-11.4496
人々に	-11.4498
ッパ	-11.4499
指数	-11.4499
に対応した	-11.45
ムス	-11.45
揃	-11.45
を記載	-11.4502
神奈川	-11.4502
農産物	-11.4502
お問合せ	-11.4502
へ来て	-11.4504
太い	-11.4504
和尚	-11.4506
king	-11.4508
いてゐる	-11.4509
SH	-11.451
評価する	-11.451
機嫌	-11.4512
包み	-11.4514
ロサンゼルス	-11.4514
觀	-11.4515
交わ	-11.4515
もらえる	-11.4516
ヘンリー	-11.4516
阻害	-11.4517
反射	-11.4517
ゲイ	-11.4518
いわば	-11.4518
不意に	-11.4521
ley	-11.4522
ii	-11.4522
帰還	-11.4522
薬を	-11.4523
爽	-11.4524
左様	-11.4526
を促す	-11.4527
性能が	-11.4528
今日まで	-11.4528
心身	-11.4531
を予測する	-11.4532
現金	-11.4533
取れる	-11.4534
事だ	-11.4534
たりする	-11.4535
一帯	-11.4535
流出	-11.4536
シード	-11.4537
チェン	-11.454
lect	-11.4544
砕	-11.4545
面白く	-11.4545
来い	-11.4547
いつの間にか	-11.4549
▁福岡県	-11.4549
日本国	-11.455
チリ	-11.4551
▁そこには	-11.4551
順番	-11.4551
教える	-11.4553
▁Cho	-11.4553
sei	-11.4554
に比べ	-11.4554
Facebook	-11.4556
成程	-11.4558
考へる	-11.4559
いっしょに	-11.4563
～5	-11.4564
後述	-11.4564
商工	-11.4564
技師	-11.4566
graph	-11.4566
LI	-11.4567
ことになり	-11.4568
収録されている	-11.4568
人には	-11.4568
徴収	-11.4571
ever	-11.4571
乞	-11.4572
YO	-11.4572
ごらん	-11.4572
られなかった	-11.4572
を借り	-11.4575
az	-11.4575
投手	-11.4578
噛	-11.4579
並み	-11.4579
ンス	-11.458
トーナメント	-11.4581
増大	-11.4582
俣	-11.4583
Pa	-11.4583
顧	-11.4584
鳥取	-11.4587
ency	-11.4588
何よりも	-11.4588
というか	-11.4589
特例	-11.4589
気がついた	-11.459
▁言語処理学会第	-11.4591
の地位	-11.4591
シリ	-11.4592
宇都宮	-11.4592
蒸気	-11.4593
に分かれ	-11.4593
建築物	-11.4594
工程	-11.4594
北方	-11.4595
の家へ	-11.4598
ファースト	-11.4599
今夜は	-11.46
に提出	-11.46
ないという	-11.4602
正義	-11.4602
本郷	-11.4602
5.2	-11.4603
飯田	-11.4603
説得	-11.4604
んじゃない	-11.4605
前田	-11.4606
開け	-11.4608
あきらめ	-11.4608
良人	-11.4609
ろい	-11.4609
ツク	-11.461
工学科	-11.4611
▁$2	-11.4612
▁主に	-11.4612
と思うと	-11.4612
歪	-11.4613
モスクワ	-11.4613
お嬢さん	-11.4614
▁本研究の	-11.4614
キャン	-11.4615
fa	-11.4615
評価データ	-11.4615
にあらず	-11.4616
が特徴	-11.4616
sha	-11.4616
箸	-11.4617
小松	-11.4617
に触れ	-11.4619
照らし	-11.462
が中心	-11.462
ニッ	-11.462
下車	-11.4621
痛い	-11.4621
勘定	-11.4621
吐き	-11.4621
に示した	-11.4622
▁1993	-11.4622
相手が	-11.4622
私達は	-11.4623
を含めて	-11.4623
男の子	-11.4626
港湾	-11.4626
帽	-11.4627
貴様	-11.463
を出た	-11.4631
チェコ	-11.4631
を抽出し	-11.4632
三味線	-11.4632
蹴	-11.4633
石井	-11.4634
オオ	-11.4634
えい	-11.4635
陽性	-11.4636
富山	-11.4636
1941	-11.4636
直す	-11.4637
営業時間	-11.4637
でございました	-11.4638
掲示	-11.4638
各々	-11.4639
を説明する	-11.4639
掻	-11.4639
よろしくお願いします	-11.4639
を備え	-11.4642
sequence	-11.4643
▁ちなみに	-11.4644
のもとで	-11.4645
物品	-11.4645
声に	-11.4646
観点から	-11.4647
rea	-11.4648
あたりに	-11.4648
大名	-11.4648
培	-11.4648
税関	-11.4649
暗号	-11.4649
っぽい	-11.4651
寄与	-11.4651
我々が	-11.4652
var	-11.4655
遊ば	-11.4656
影響を与え	-11.4656
備考	-11.4656
誕生日	-11.4656
演じ	-11.4657
カレンダー	-11.4657
1959	-11.4657
覺	-11.4658
モチーフ	-11.4659
柔道	-11.4659
を集めて	-11.4661
=1	-11.4661
定住	-11.4661
ハンガリー	-11.4662
▁each	-11.4662
教諭	-11.4664
時代から	-11.4665
センチ	-11.4666
作成された	-11.4666
のイメージ	-11.4667
OL	-11.4668
意向	-11.4668
▁European	-11.4668
は既に	-11.467
例文	-11.467
みます	-11.4673
▁尤も	-11.4674
に出席	-11.4675
見せて	-11.4676
にちがいない	-11.4676
受入	-11.4677
ここの	-11.4677
lambda	-11.4677
つち	-11.4679
やり方	-11.4679
産の	-11.4679
できるか	-11.468
が必要となる	-11.468
の専門家	-11.4681
衆議院議員	-11.4681
タッチ	-11.4682
を掲げ	-11.4683
歴代	-11.4684
以前から	-11.4684
に着目し	-11.4684
テラ	-11.4685
バーン	-11.4685
待た	-11.4687
会う	-11.4688
気づか	-11.4689
ディスク	-11.469
03.	-11.4692
死者	-11.4692
出会った	-11.4692
が一つ	-11.4692
10:00	-11.4692
模	-11.4693
匠	-11.4694
ていくこと	-11.4695
ですよね	-11.4695
qui	-11.4695
を挙げ	-11.4697
▁Copyright	-11.4697
ml	-11.4697
そういうこと	-11.4698
惣	-11.4698
赤く	-11.4699
▁News	-11.47
修飾	-11.4701
こいつ	-11.4701
祀	-11.4702
られています	-11.4703
に移籍	-11.4703
を達成した	-11.4703
転移	-11.4704
に貢献した	-11.4704
化粧	-11.4704
信じて	-11.4708
FAQ	-11.4708
NLI	-11.4708
公平	-11.4711
知られる	-11.4711
外へ出	-11.4712
を語る	-11.4712
杜	-11.4713
ざま	-11.4714
▁Sh	-11.4714
相互作用	-11.4714
免除	-11.4715
参加する	-11.4716
あがる	-11.4716
あるまい	-11.4717
1956	-11.4717
が良い	-11.4717
ウィル	-11.4719
買収	-11.4719
するのか	-11.472
ができない	-11.472
zi	-11.472
地域医療	-11.4721
弁当	-11.4721
鋭い	-11.4721
ばり	-11.4722
(2014	-11.4722
富士山	-11.4723
を変える	-11.4723
高知	-11.4725
/12/	-11.4726
漏	-11.4727
天体	-11.4727
さす	-11.4728
ハイパーパラメータ	-11.4729
と言われる	-11.4729
簡易	-11.473
拡充	-11.473
を入れる	-11.4731
▁Ga	-11.4731
怪し	-11.4731
商標	-11.4734
撤退	-11.4734
それ以外の	-11.4734
Excel	-11.4734
で優勝	-11.4735
とん	-11.4735
させていただきました	-11.4736
以下のような	-11.4738
前へ	-11.474
洗濯	-11.4741
1955	-11.4742
ib	-11.4742
国王	-11.4742
へ出	-11.4742
額を	-11.4743
公的	-11.4743
空き	-11.4744
尽き	-11.4744
設定した	-11.4744
Ed	-11.4744
GC	-11.4746
高田	-11.4747
移植	-11.4748
ren	-11.4749
に貢献する	-11.475
朋	-11.4751
オーケストラ	-11.4752
取つて	-11.4752
ファンド	-11.4754
を追い	-11.4755
嬢	-11.4756
じゃア	-11.4757
ism	-11.4757
ところまで	-11.4758
出現する	-11.4758
公認	-11.4759
鳩	-11.476
なってきた	-11.476
va	-11.4761
晋	-11.4761
かわり	-11.4762
汎用	-11.4762
兵衞	-11.4763
いかが	-11.4763
おじさん	-11.4764
完備	-11.4766
顔で	-11.4766
を繰り返し	-11.4766
示された	-11.4766
短期大学	-11.4766
奧	-11.4766
調べて	-11.4769
藍	-11.4769
ふた	-11.4771
健康づくり	-11.4773
管内	-11.4774
明瞭	-11.4774
しているか	-11.4774
啼	-11.4775
みず	-11.4776
カウンター	-11.4776
とは異なり	-11.4777
提案した	-11.4777
洗い	-11.4777
直して	-11.4778
版画	-11.4781
じき	-11.4783
絶望	-11.4787
ルン	-11.4788
ドキュメンタリー	-11.4788
泣	-11.4789
スミス	-11.479
軟	-11.4791
起きた	-11.4792
Pro	-11.4793
聞かれ	-11.4797
に取り組み	-11.4798
薫	-11.4798
起こる	-11.4798
浜松	-11.4799
100%	-11.4799
送って	-11.4799
マツ	-11.48
ザル	-11.4801
協賛	-11.4801
吸い	-11.4801
描かれている	-11.4801
公開されている	-11.4802
渠	-11.4802
1944	-11.4802
筋肉	-11.4803
パスポート	-11.4804
背負	-11.4804
sign	-11.4804
跳	-11.4804
ナノ	-11.4805
SF	-11.4805
は以下の通り	-11.4805
を超え	-11.4807
右側	-11.4808
タク	-11.4809
仕舞	-11.481
ご飯	-11.4811
に仕え	-11.4812
が来る	-11.4813
気づき	-11.4813
この間	-11.4815
同行	-11.4815
殿様	-11.4817
叔母	-11.4818
はできません	-11.4818
一〇	-11.4819
すけ	-11.482
▁あなたは	-11.482
商店	-11.4821
oku	-11.4821
千円	-11.4822
んですから	-11.4823
を変えて	-11.4824
不十分	-11.4826
知的財産	-11.4827
わす	-11.4827
困	-11.4827
考えてみ	-11.4828
この問題	-11.4828
メガ	-11.4829
に寄与する	-11.483
下位	-11.4831
魚の	-11.4832
ブラウン	-11.4833
sk	-11.4835
▁関連研究	-11.4838
ほっと	-11.4839
弄	-11.4839
妻は	-11.4841
ガリ	-11.4841
事がある	-11.4841
奮	-11.4841
▁その他の	-11.4842
親しみ	-11.4843
子も	-11.4843
京都市	-11.4843
必要に応じて	-11.4844
抑	-11.4844
アパート	-11.4845
ラウ	-11.4845
を変え	-11.4845
われわれの	-11.4846
▁Twitter	-11.4847
言っている	-11.4848
慣	-11.4848
かしい	-11.485
アメリカン	-11.485
の皮	-11.485
▁IEEE	-11.485
今度の	-11.4851
を作った	-11.4851
足音	-11.4852
ぞく	-11.4853
場合でも	-11.4853
原料	-11.4855
久保	-11.4857
レート	-11.4857
を獲得し	-11.4858
と呼び	-11.4859
怨	-11.486
すか	-11.486
が少なく	-11.486
をやる	-11.4861
読解	-11.4861
▁based	-11.4862
tokyo	-11.4862
ふれ	-11.4862
ani	-11.4862
様子が	-11.4863
民俗	-11.4863
▁training	-11.4864
取り入れ	-11.4864
の他に	-11.4865
▁one	-11.4865
にとつて	-11.4865
国内で	-11.4866
損害	-11.4866
5-1	-11.4867
▁their	-11.4869
ご相談ください	-11.487
職種	-11.4872
各地	-11.4872
ひろば	-11.4874
認可	-11.4874
尊重	-11.4874
綺麗な	-11.4875
欠け	-11.4875
するとき	-11.4876
になってしまう	-11.4876
で構成される	-11.4877
出すと	-11.4877
▁それでは	-11.4878
正午	-11.4879
島田	-11.488
左手	-11.4883
行なわれ	-11.4883
俵	-11.4883
信濃	-11.4883
VR	-11.4883
こんなことを	-11.4885
頃は	-11.4886
キャンセル	-11.4887
対訳コーパス	-11.4888
健全	-11.4889
関節	-11.489
:9	-11.4891
苦手	-11.4891
向い	-11.4892
▁大阪府	-11.4892
を推定する	-11.4895
イエ	-11.4897
の内容を	-11.4898
違って	-11.4898
くじ	-11.4898
のかい	-11.4899
傘下	-11.4901
本件	-11.4902
這	-11.4903
を提案した	-11.4903
修道院	-11.4904
に当たる	-11.4905
と呼んで	-11.4905
補償	-11.4906
楽しさ	-11.4906
▁June	-11.4906
人以上	-11.4907
世間の	-11.4908
こんどは	-11.491
Al	-11.491
湧	-11.4911
延び	-11.4912
遂行	-11.4912
尋ね	-11.4912
できて	-11.4913
八月	-11.4913
進捗	-11.4914
預け	-11.4915
法政大学	-11.4915
は大きく	-11.4918
シンガポール	-11.4918
ت	-11.4918
▁自然言語処理	-11.4918
の手続き	-11.4918
屋外	-11.4918
ひそかに	-11.492
疾	-11.492
かえり	-11.4922
敷地	-11.4923
考えられ	-11.4924
クルー	-11.4924
缶	-11.4924
▁件の	-11.4926
1948	-11.4927
が悪く	-11.4928
マレーシア	-11.4929
ラーニング	-11.4929
ツー	-11.4929
松田	-11.493
終る	-11.4933
0.8	-11.4934
nn	-11.4934
と信じ	-11.4934
てしまって	-11.4934
一夜	-11.4934
待て	-11.4935
種々の	-11.4936
▁Yang	-11.4936
生地	-11.4937
されたこと	-11.4938
馬場	-11.4939
NER	-11.4939
を送り	-11.4939
中へ	-11.494
を訪ね	-11.4941
と考えています	-11.4942
▁into	-11.4942
1942	-11.4943
捨	-11.4943
歎	-11.4944
開催します	-11.4945
活動報告	-11.4945
蔽	-11.4946
而して	-11.4947
受賞者	-11.4948
だったら	-11.4948
をもたらす	-11.495
前方	-11.4951
困難な	-11.4951
おられる	-11.4952
リーグの	-11.4955
武家	-11.4955
にしろ	-11.4955
返還	-11.4958
▁Analysis	-11.4958
主催の	-11.496
uni	-11.496
臥	-11.4961
用いられ	-11.4961
米国の	-11.4963
あいだ	-11.4964
▁その際	-11.4965
開催日時	-11.4965
場合もある	-11.4965
睡眠	-11.4966
みられる	-11.4966
椿	-11.4967
GM	-11.4968
1952	-11.4969
申上げ	-11.4969
がそれぞれ	-11.4971
どうしたら	-11.4971
OD	-11.4971
との比較	-11.4972
小説家	-11.4973
を向上させる	-11.4975
それよりも	-11.4976
ネタ	-11.4977
締め切り	-11.4978
すつかり	-11.4978
部屋へ	-11.4978
頼んで	-11.4979
状況について	-11.4979
～9	-11.498
zo	-11.4981
を買って	-11.4981
めい	-11.4982
Blu	-11.4983
甘い	-11.4985
ウォル	-11.4986
py	-11.4986
レンズ	-11.4986
ささ	-11.4986
eu	-11.4987
繰	-11.4988
を提供し	-11.4989
つとめ	-11.4989
社会科学	-11.4989
回避	-11.4989
出演者	-11.4989
代謝	-11.499
はつきり	-11.499
ient	-11.4992
くろ	-11.4993
現れ	-11.4994
周期	-11.4995
時期に	-11.4996
負荷	-11.4996
の最終	-11.4997
でん	-11.4997
審査員	-11.4998
種別	-11.4999
お子様	-11.5
混雑	-11.5
▁Vi	-11.5001
助詞	-11.5001
CK	-11.5001
GS	-11.5002
吹く	-11.5002
疲労	-11.5003
然う	-11.5004
涙が	-11.5005
どき	-11.5006
0.6	-11.5006
怖い	-11.5008
総務省	-11.5013
を殺した	-11.5013
開発された	-11.5014
正常	-11.5014
の適用	-11.5016
きわめて	-11.5016
浸	-11.5017
考えていた	-11.5017
を推進	-11.5019
敦	-11.5019
集積	-11.502
らうと	-11.5022
こともあった	-11.5023
)、『	-11.5023
市では	-11.5025
CF	-11.5025
共演	-11.5026
LD	-11.5026
▁勿論	-11.5027
歳以上	-11.5027
7-1	-11.5028
▁̄	-11.5029
励	-11.503
様子で	-11.503
見えます	-11.503
歩いている	-11.5031
▁Taka	-11.5031
似ている	-11.5031
正規化	-11.5031
Con	-11.5032
ING	-11.5033
スープ	-11.5033
移民	-11.5034
どころか	-11.5035
はなかつた	-11.5035
脂	-11.5037
高かった	-11.5037
(2013	-11.5038
ことが出来た	-11.5039
であろうと	-11.504
出土	-11.5042
:00～17:00	-11.5043
この辺	-11.5043
食べ物	-11.5044
知らん	-11.5046
窺	-11.5046
廻って	-11.5047
松山	-11.5048
樹木	-11.5048
ネーム	-11.5048
避	-11.5049
倫	-11.5049
高専	-11.505
のことだ	-11.505
みどり	-11.5052
つまらない	-11.5054
ドーム	-11.5054
年前の	-11.5055
窪	-11.5055
如何なる	-11.5055
含意	-11.5056
びっくり	-11.5057
の建物	-11.5057
の腕	-11.5057
行きます	-11.5059
こら	-11.5059
医学部	-11.5059
/9	-11.5059
ロイド	-11.5061
だいぶ	-11.5061
を借りて	-11.5061
役場	-11.5061
七月	-11.5063
が発生した	-11.5064
山脈	-11.5064
シンボル	-11.5066
も同様	-11.5067
神楽	-11.5068
出せ	-11.5068
ベリー	-11.5069
▁よって	-11.5071
認められた	-11.5071
～4	-11.5072
附近	-11.5072
概	-11.5072
受ける	-11.5073
ロング	-11.5073
生物学	-11.5074
競争力	-11.5074
年シーズン	-11.5075
市民活動	-11.5076
感じられる	-11.5077
▁San	-11.5077
▁Col	-11.5078
を対象として	-11.5078
▁Ad	-11.5079
ゴム	-11.5081
/8	-11.5081
理由で	-11.5082
にかけ	-11.5083
を組み	-11.5086
キャラ	-11.5086
に逢	-11.5086
豆腐	-11.5086
1949	-11.5086
慮	-11.5089
つて来た	-11.509
かぎり	-11.5094
gr	-11.5094
貴女	-11.5096
ker	-11.5097
もあろう	-11.5097
令和元年	-11.5098
Ro	-11.5099
纏	-11.5102
徐	-11.5105
1946	-11.5106
借金	-11.5107
飛騨	-11.5107
史上	-11.5108
嬉し	-11.5108
対象とする	-11.5109
の現場	-11.5109
日向	-11.511
巡回	-11.5113
trans	-11.5113
海水	-11.5114
県内の	-11.5114
▁two	-11.5115
いえば	-11.5115
チア	-11.5115
たちも	-11.5115
シマ	-11.5116
マラ	-11.5116
いつた	-11.5119
車体	-11.5119
ことを期待	-11.512
ノイ	-11.5121
rate	-11.5122
本来の	-11.5123
伝わって	-11.5124
を教えて	-11.5124
と思	-11.5125
を強く	-11.5126
掃	-11.5126
北朝鮮	-11.5126
快適	-11.5129
刷	-11.5129
:08	-11.513
栄一	-11.513
に携わる	-11.513
経由	-11.5133
シカ	-11.5134
幹事	-11.5135
私ども	-11.5135
うけ	-11.5136
あたかも	-11.5136
を呼んで	-11.5136
立案	-11.5137
作家の	-11.5137
安全保障	-11.5137
濱	-11.5141
濃い	-11.5141
ストロ	-11.5141
fu	-11.5141
新聞記事	-11.5143
緑色	-11.5143
ベルギー	-11.5143
いっている	-11.5143
外務省	-11.5144
こういった	-11.5144
type	-11.5145
3-6	-11.5145
頂く	-11.5145
VE	-11.5145
▁Ver	-11.5145
抑え	-11.5146
1957	-11.5146
いるのだ	-11.5151
でプレーし	-11.5151
、2008	-11.5152
マックス	-11.5153
の様に	-11.5155
両側	-11.5156
の楽曲	-11.5158
はかなり	-11.5158
給え	-11.5158
頃には	-11.5158
は勿論	-11.5158
ound	-11.5159
返却	-11.516
読んだ	-11.516
】「	-11.516
無言	-11.5161
したことで	-11.5162
DR	-11.5162
というふうに	-11.5163
130	-11.5164
独立した	-11.5164
兎に角	-11.5165
1-4	-11.5167
▁Attention	-11.5167
ヒュー	-11.5168
1.1	-11.5168
を相手に	-11.5169
れていた	-11.5169
といわれる	-11.5171
に感謝	-11.5173
奨	-11.5173
雨が降	-11.5174
司令官	-11.5174
今年の	-11.5175
見られ	-11.5176
▁Task	-11.5177
国際会議	-11.5178
lor	-11.5179
の特性	-11.5179
破綻	-11.5181
▁context	-11.5182
▁Ja	-11.5182
0.3	-11.5183
:07	-11.5184
帆村	-11.5184
投入	-11.5185
今後の課題	-11.5186
バート	-11.5186
知れない	-11.5186
一致する	-11.5187
隣接する	-11.5188
を介して	-11.5188
金融庁	-11.5188
紙を	-11.5189
住まい	-11.5189
詳細については	-11.5189
修行	-11.519
実質	-11.5191
回戦	-11.5191
エド	-11.5193
素人	-11.5193
こだわり	-11.5193
с	-11.5194
cle	-11.5194
開催する	-11.5194
駅伝	-11.5195
なかったので	-11.5196
おじいさん	-11.5196
もあるが	-11.5196
受容体	-11.5198
抗体	-11.5199
併用	-11.5201
▁study	-11.5201
ないような	-11.5202
何しろ	-11.5202
+\	-11.5204
に用いた	-11.5206
電燈	-11.5207
暑さ	-11.5207
を見ている	-11.5208
全体を	-11.5208
ric	-11.521
があるから	-11.521
命名	-11.521
むろん	-11.5211
乗った	-11.5211
とくに	-11.5212
のポイント	-11.5213
規	-11.5214
兵庫	-11.5215
終了した	-11.5216
～16	-11.5216
を起こし	-11.5218
内側	-11.5219
わせる	-11.522
ことだった	-11.5221
ヴァイ	-11.5223
青森	-11.5225
▁used	-11.5225
が見られた	-11.5226
は常に	-11.5227
yan	-11.5228
ジェームズ	-11.5228
出てきた	-11.5228
述べ	-11.5229
label	-11.5229
の形成	-11.523
ことには	-11.5231
をご紹介	-11.5231
ato	-11.5232
キル	-11.5232
ざわ	-11.5234
債	-11.5234
ゐました	-11.5235
推進課	-11.5235
かわいい	-11.5235
政府が	-11.5238
八十	-11.5239
ゑ	-11.524
二人とも	-11.524
度々	-11.5241
だけだ	-11.5241
日々の	-11.5241
その晩	-11.5241
の模様	-11.5242
する場合は	-11.5243
働	-11.5244
▁understanding	-11.5248
化して	-11.5248
▁(2020)	-11.525
ドルフ	-11.5251
斎藤	-11.5252
んじゃないか	-11.5252
負例	-11.5252
紹介した	-11.5252
価値観	-11.5252
始終	-11.5253
急性	-11.5253
衣装	-11.5253
旋	-11.5253
法務	-11.5254
こちらから	-11.5257
流域	-11.5257
仕事に	-11.5257
大学院生	-11.5257
付加	-11.5259
十時	-11.5259
われわれは	-11.5259
灰色	-11.526
おはなし	-11.526
カッ	-11.5261
にしか	-11.5261
頓	-11.5261
でもなく	-11.5262
祈り	-11.5263
強み	-11.5263
PL	-11.5265
▁先日	-11.5265
の類似度	-11.5265
を進めて	-11.5266
溢れ	-11.5266
浮べ	-11.5266
問題について	-11.5266
一瞬	-11.5267
って行った	-11.5267
観覧	-11.5268
乗車	-11.5269
▁1991	-11.5269
べからざる	-11.527
父母	-11.5271
歌う	-11.5272
の本質	-11.5272
に生まれる	-11.5272
ray	-11.5273
ミャンマー	-11.5274
コマンド	-11.5274
徳島県	-11.5275
を取得	-11.5276
着いた	-11.5276
ium	-11.5277
城下	-11.5278
の姿が	-11.5278
ソウル	-11.5279
接近	-11.528
公式サイト	-11.5282
身の上	-11.5284
PO	-11.5284
責め	-11.5286
に分かれて	-11.5286
すま	-11.5287
西側	-11.5288
バカ	-11.5288
最終的な	-11.5288
道理	-11.5289
ident	-11.529
クン	-11.529
lingual	-11.5293
▁Han	-11.5294
笑いながら	-11.5296
つづけ	-11.5296
を募集	-11.5296
Ru	-11.5298
扱われ	-11.5298
描かれた	-11.5299
ning	-11.5299
津田	-11.5299
を結成	-11.5299
たべ	-11.5301
の発行	-11.5302
電子メール	-11.5302
かえる	-11.5303
藁	-11.5304
一つ一つ	-11.5306
仇	-11.5306
買った	-11.5307
書いている	-11.5308
すべきである	-11.5308
記述する	-11.5308
楠	-11.5308
▁Google	-11.5309
立体	-11.5309
かういふ	-11.531
に於いて	-11.531
多かった	-11.5312
ロフ	-11.5312
奥様	-11.5313
鳥取県	-11.5314
債務	-11.5316
用事	-11.5316
起きる	-11.5317
新鮮な	-11.5318
あちこち	-11.5318
召し	-11.532
遠隔	-11.532
ブン	-11.5321
お部屋	-11.5322
摂取	-11.5324
飲んだ	-11.5324
を捉え	-11.5325
家具	-11.5325
記載されている	-11.5325
どうにも	-11.5326
へ出る	-11.5328
ck	-11.5329
を除いて	-11.5331
トゥー	-11.5332
相手は	-11.5334
▁human	-11.5334
原題	-11.5335
03-5253-	-11.5336
会期	-11.5336
イラン	-11.5337
度目の	-11.5337
ポルトガル	-11.5338
ヤード	-11.5339
貯	-11.5341
刈り	-11.5343
モデルと	-11.5343
に至り	-11.5343
屋へ	-11.5344
ましたよ	-11.5344
[\	-11.5345
たいという	-11.5345
VI	-11.5346
▁長野県	-11.5347
初心者	-11.5347
といつて	-11.5348
入つて	-11.5349
育った	-11.535
わせて	-11.5351
を卒業	-11.5353
ings	-11.5354
立図書館	-11.5355
ソニー	-11.5356
を持たない	-11.5356
關	-11.5358
提案手法は	-11.5359
積り	-11.5361
チル	-11.5363
т	-11.5363
朝から	-11.5364
▁Tokyo	-11.5364
昨年度	-11.5365
本能	-11.5368
短く	-11.5368
ものだと	-11.5369
手法を提案する	-11.5369
ses	-11.5369
たちと	-11.537
だからこそ	-11.5371
袂	-11.5372
促	-11.5372
自身も	-11.5372
2-6	-11.5373
出て来る	-11.5373
アルプス	-11.5374
といふのは	-11.5375
遮	-11.5375
北側	-11.5376
で生まれた	-11.5377
に所属	-11.5377
おさ	-11.5377
ご連絡ください	-11.5378
襖	-11.5379
受講者	-11.5382
KI	-11.5383
淋しい	-11.5383
5-7	-11.5383
Le	-11.5384
バーグ	-11.5389
審判	-11.539
一括	-11.539
アルバイト	-11.539
しているため	-11.539
をさらに	-11.539
新幹線	-11.5391
直に	-11.5391
落とし	-11.5392
に行われた	-11.5394
エッセイ	-11.5394
oo	-11.5394
マネージャー	-11.5395
本体	-11.5395
くれました	-11.5396
トス	-11.5396
郵便局	-11.5396
インチ	-11.5398
探検	-11.5398
惹	-11.5398
量子	-11.5399
固有	-11.5399
破り	-11.54
どこで	-11.54
冊子	-11.5401
医科大学	-11.5403
靜	-11.5403
奇妙な	-11.5404
ぴったり	-11.5404
1%	-11.5404
Microsoft	-11.5405
戻る	-11.5406
再編	-11.5406
木材	-11.5406
面談	-11.5406
えゝ	-11.5406
韓国の	-11.5408
しているので	-11.5408
川村	-11.5409
苦笑	-11.5409
つ目は	-11.5409
主義者	-11.541
水泳	-11.5411
履歴	-11.5412
先生方	-11.5413
阿部	-11.5413
を満たす	-11.5414
っく	-11.5416
まらない	-11.5419
取組み	-11.542
が進められ	-11.5421
買い物	-11.5421
出雲	-11.5424
open	-11.5424
航海	-11.5425
▁Alex	-11.5425
の大部分	-11.5426
イタリアの	-11.5427
事業計画	-11.5428
年間で	-11.5428
固め	-11.5428
HTML	-11.5429
バッ	-11.5429
募	-11.5429
皆さんの	-11.543
高野	-11.5431
物流	-11.5431
▁詳しくはこちら	-11.5432
オプション	-11.5433
宮廷	-11.5433
はっきりと	-11.5434
鎌	-11.5435
どこの	-11.5436
正体	-11.5437
周囲に	-11.5437
小田	-11.5438
を残して	-11.5438
日本橋	-11.5438
くみ	-11.544
通貨	-11.5442
1954	-11.5443
体感	-11.5444
part	-11.5445
云われ	-11.5445
何物	-11.5446
役目	-11.5446
容器	-11.5447
集まった	-11.5448
小鳥	-11.5448
岸和田	-11.5449
GPT	-11.545
view	-11.5452
歳から	-11.5452
掛けた	-11.5453
六月	-11.5455
活動内容	-11.5456
別荘	-11.5457
▁test	-11.5457
ラフ	-11.5458
といっしょに	-11.5459
臼	-11.5461
相当の	-11.5461
いちご	-11.5461
12:00	-11.5461
相模	-11.5463
暮し	-11.5465
登記	-11.5466
▁Art	-11.5466
14:00	-11.5466
槌	-11.5466
ハラスメント	-11.5468
初出場	-11.5469
に於ては	-11.5469
拵え	-11.547
▁\&	-11.547
且つ	-11.5471
選手団	-11.5471
されず	-11.5471
Me	-11.5471
UT	-11.5472
そそ	-11.5472
たき	-11.5474
に戻り	-11.5476
あくまで	-11.5476
を推進し	-11.5476
下手	-11.5476
170	-11.5478
人たちの	-11.5479
運んで	-11.5479
4-1	-11.548
ビーム	-11.548
総督	-11.5481
虹	-11.5481
OT	-11.5482
巨大	-11.5482
空中	-11.5482
茨城	-11.5483
青春	-11.5483
ブロー	-11.5485
に所属する	-11.5485
文化的	-11.5486
左側	-11.5487
なかに	-11.549
を多く	-11.549
わずかに	-11.549
になれ	-11.5491
二月	-11.5491
フィンランド	-11.5491
拡散	-11.5492
総合的な	-11.5492
オーディション	-11.5494
兵馬	-11.5495
1939	-11.5495
ことのできる	-11.5496
既存	-11.5496
ほら	-11.5496
宮崎県	-11.5497
喋	-11.5497
テレビドラマ	-11.5497
出馬	-11.5498
›	-11.5499
独自	-11.5499
予告	-11.5499
強度	-11.55
こととなった	-11.5501
収蔵	-11.5503
の出現	-11.5503
なければいけない	-11.5504
誘い	-11.5504
合わせる	-11.5504
学専攻	-11.5504
父親の	-11.5505
その辺	-11.5507
ぞう	-11.5507
俺が	-11.5508
▁上記の	-11.5509
ことでしょう	-11.5511
さぬ	-11.5513
テンプレート	-11.5514
を加えて	-11.5515
▁other	-11.5517
が完成	-11.5518
るだろう	-11.5518
順次	-11.5519
ことができなかった	-11.5519
を持つて	-11.552
実家	-11.5521
情報通信	-11.5522
したりする	-11.5523
(2012	-11.5524
擬	-11.5525
脂肪	-11.5525
▁ある日	-11.5526
警備	-11.5529
あお	-11.553
ster	-11.5531
に転じ	-11.5532
はずです	-11.5533
3.5	-11.5533
たず	-11.5533
一匹	-11.5533
奉公	-11.5535
くなつて	-11.5535
鬱	-11.5535
成田	-11.5535
ろうとする	-11.5536
降る	-11.5536
の姿は	-11.5537
襲撃	-11.5537
生徒の	-11.5537
もあつた	-11.5537
住んでいた	-11.5539
柔らか	-11.554
對	-11.5541
始まって	-11.5542
ano	-11.5544
表す	-11.5545
後藤	-11.5545
アマチュア	-11.5546
蛙	-11.5547
市にある	-11.5548
クリス	-11.5549
放映	-11.5549
ゆら	-11.555
二階の	-11.5551
かろう	-11.5551
牧場	-11.5553
会費	-11.5554
おもちゃ	-11.5554
稚	-11.5555
▁[18]	-11.5555
ny	-11.5555
あらわれ	-11.5555
cu	-11.5557
話しかけ	-11.5559
ものゝ	-11.5561
ls	-11.5563
$-	-11.5563
ご参加ください	-11.5563
▁were	-11.5563
OP	-11.5564
棄	-11.5565
学んだ	-11.5566
こんにちは	-11.5567
佐野	-11.5567
ればいい	-11.5567
募集要項	-11.5568
が強い	-11.5568
もど	-11.557
エロ	-11.5572
一人一人	-11.5572
々とした	-11.5573
▁work	-11.5575
を学習する	-11.5576
一段	-11.5576
均	-11.5577
鉄砲	-11.5577
而も	-11.5577
高級	-11.5577
ランナー	-11.5577
噛み	-11.5578
誰だ	-11.5579
酌	-11.558
プリン	-11.5584
膝を	-11.5584
～6	-11.5586
like	-11.5586
を推進する	-11.5586
LL	-11.5587
和歌山県	-11.5587
構文解析	-11.5587
頂戴	-11.5588
家の中	-11.5588
1953	-11.5588
ましょうか	-11.5588
側は	-11.5589
を忘れて	-11.5589
つり	-11.559
斷	-11.559
離婚	-11.559
適当	-11.559
地形	-11.559
することが可能	-11.5592
指定管理者	-11.5592
▁Dis	-11.5592
ディズニー	-11.5593
л	-11.5593
少年の	-11.5594
/11/	-11.5595
を踏まえた	-11.5595
フン	-11.5596
勅	-11.5596
を支援し	-11.5597
植民地	-11.5598
デリ	-11.5598
ぐらいの	-11.5599
非常な	-11.5601
時系列	-11.5604
死亡した	-11.5605
評論	-11.5606
.31	-11.5607
ジム	-11.5608
パートナーシップ	-11.5608
介護保険	-11.5608
の合計	-11.5609
来場者	-11.5611
というのも	-11.5612
ジャーナリスト	-11.5613
ボロ	-11.5613
祖先	-11.5614
藤井	-11.5614
包囲	-11.5616
を用いることで	-11.5618
をいただき	-11.5619
一々	-11.5624
選ばれた	-11.5625
実業家	-11.5625
が多数	-11.5626
アンサンブル	-11.5626
▁埼玉県	-11.5627
で活躍	-11.5627
コンビ	-11.5629
cdots	-11.5629
だったのです	-11.563
で働く	-11.5631
うま	-11.5631
を送る	-11.5631
今更	-11.5632
を目指した	-11.5634
案件	-11.5634
漁師	-11.5636
立ち上げ	-11.5637
～15	-11.5639
数々の	-11.5639
曾	-11.564
手足	-11.5641
日経	-11.5642
-02	-11.5643
ニュージーランド	-11.5644
たずね	-11.5644
ダブル	-11.5645
▁Semantic	-11.5645
遊びに	-11.5647
朝日新聞	-11.5649
tional	-11.5649
野町	-11.565
モバイル	-11.565
渡す	-11.5652
保有	-11.5652
シオ	-11.5653
お名前	-11.5653
手法では	-11.5654
期待される	-11.5654
便利な	-11.5654
漫	-11.5655
が発生する	-11.5656
近傍	-11.5656
そこら	-11.5656
エンジニア	-11.5657
違ひ	-11.5658
演算	-11.5659
戻って	-11.5663
標的	-11.5663
してやる	-11.5663
きれない	-11.5663
併し	-11.5663
込まれる	-11.5664
紙に	-11.5665
フットボール	-11.5665
国内外	-11.5665
然たる	-11.5667
描いて	-11.5668
▁set	-11.5668
カ国	-11.5668
を明らかにし	-11.5669
として活躍	-11.5669
に触れる	-11.5671
hr	-11.5671
げな	-11.5671
悲劇	-11.5672
(13	-11.5673
ショウ	-11.5674
妖	-11.5674
実験の結果	-11.5676
休館	-11.5677
分る	-11.5678
甥	-11.5678
ものはない	-11.5681
の保護	-11.5681
過剰	-11.5682
攻	-11.5682
ジャンプ	-11.5682
大学教授	-11.5683
場として	-11.5684
さなかった	-11.5684
地蔵	-11.5685
主婦	-11.5685
翌朝	-11.5686
tin	-11.5686
▁2011.	-11.5688
っ子	-11.5689
チャールズ	-11.5689
press	-11.5689
source	-11.5689
公爵	-11.5691
申して	-11.5691
コラボレーション	-11.5692
外で	-11.5692
ゴールド	-11.5692
をあけ	-11.5692
ポンド	-11.5695
▁approach	-11.5695
マクロ	-11.5695
▁Sun	-11.5696
[1]	-11.5696
天皇の	-11.5697
バレエ	-11.5697
子ども達	-11.5697
登場人物	-11.5699
▁Ni	-11.5699
クリエイティブ	-11.5701
義理	-11.5701
寂しい	-11.5701
打って	-11.5702
を防ぐ	-11.5703
重症	-11.5704
んでゐる	-11.5704
に分けて	-11.5704
れど	-11.5704
▁Bar	-11.5705
はるかに	-11.5706
贈呈	-11.5708
5.0	-11.5709
そいつ	-11.5712
思つた	-11.5712
ポリシー	-11.5713
ace	-11.5713
御免	-11.5714
現実の	-11.5715
技法	-11.5716
ハリ	-11.5716
Te	-11.5717
船舶	-11.5717
TER	-11.5718
ミュージカル	-11.5719
舞踊	-11.5719
偉大な	-11.572
致しました	-11.5721
をやめ	-11.5721
の感想	-11.5721
現在も	-11.5721
▁本研究で	-11.5727
を脱	-11.5727
テク	-11.5727
ull	-11.5729
売上	-11.573
歌い	-11.5731
専務	-11.5731
を開く	-11.5732
せざる	-11.5733
泥棒	-11.5733
情報交換	-11.5734
柔軟	-11.5734
圧力	-11.5734
められた	-11.5735
▁そしてその	-11.5735
get	-11.5738
が参加し	-11.5738
標高	-11.574
人工知能	-11.574
岸本	-11.574
博士課程	-11.5741
プレスリリース	-11.5742
に包まれ	-11.5745
生息	-11.5745
神秘	-11.5746
タレント	-11.5746
せしめ	-11.5747
坂本	-11.5747
情報センター	-11.5748
ild	-11.5749
富山県	-11.575
1943	-11.575
戻り	-11.5751
函館	-11.5753
賣	-11.5756
キロメートル	-11.5758
活動している	-11.5759
non	-11.576
rin	-11.576
を発表し	-11.576
角度	-11.5761
UC	-11.5761
tro	-11.5761
青空	-11.5765
手拭	-11.5766
ü	-11.5766
入り口	-11.5766
創刊	-11.5766
1-6	-11.5769
行きたい	-11.577
に焦点を当て	-11.5771
参りました	-11.5772
札幌市	-11.5773
に立った	-11.5774
▁Representations	-11.5774
を組み合わせた	-11.5774
テック	-11.5776
があっても	-11.5776
官僚	-11.5776
カツ	-11.5777
tes	-11.5777
査	-11.5778
GL	-11.5778
権威	-11.5778
ook	-11.5778
めぐ	-11.5778
変遷	-11.5778
プラスチック	-11.5779
少くとも	-11.578
大小	-11.578
環境保全	-11.578
本格的な	-11.578
したもので	-11.578
ボラ	-11.5781
三角	-11.5782
フランク	-11.5784
▁}^{1	-11.5784
の方々に	-11.5784
内での	-11.5785
邊	-11.5785
の話を	-11.5788
停車場	-11.579
密接	-11.5791
を身につけ	-11.5794
クタ	-11.5796
だけれど	-11.5797
9:30	-11.5798
そちら	-11.5798
(2011	-11.5798
ヴェン	-11.5799
～10	-11.5801
たように	-11.5801
を離れて	-11.5801
誘致	-11.5801
専門分野	-11.5802
structure	-11.5802
マイケル	-11.5802
自然な	-11.5802
ことを確認した	-11.5805
雌	-11.5805
uan	-11.5806
汗を	-11.5806
効率化	-11.5806
eh	-11.5808
ために必要な	-11.5808
郭	-11.5808
中国語版	-11.5809
を加える	-11.581
十一月	-11.581
注射	-11.5811
awa	-11.5812
矢張り	-11.5812
サントリー	-11.5814
忘れた	-11.5814
の低い	-11.5814
鞭	-11.5815
取り上げられ	-11.5816
する手法	-11.5816
向いた	-11.5817
符	-11.5817
を獲得する	-11.5818
ゅ	-11.5818
▁ここから本文です	-11.5818
していただき	-11.5819
サッ	-11.5819
インターナショナル	-11.582
ホールディングス	-11.5821
分裂	-11.5822
:01	-11.5823
東大	-11.5824
日本一	-11.5826
九郎	-11.5826
土木学会	-11.5827
document	-11.5828
tau	-11.5828
グラフィック	-11.5829
していった	-11.5831
はなかなか	-11.5831
診療所	-11.5831
▁Hi	-11.5833
織り	-11.5833
指定された	-11.5833
救助	-11.5836
以て	-11.5837
を定め	-11.5838
藩の	-11.5838
貢	-11.5839
お客様の	-11.584
症候群	-11.584
の扉	-11.5841
〒	-11.5842
木戸	-11.5842
することができ	-11.5843
各地で	-11.5845
これほど	-11.5847
と思ひ	-11.5847
の品質	-11.5847
冷え	-11.5849
埃	-11.5849
を提案し	-11.5849
▁Masa	-11.585
品物	-11.585
追放	-11.585
など様々な	-11.585
大好き	-11.5851
土佐	-11.5852
並ぶ	-11.5853
始まる	-11.5854
母親の	-11.5854
来館	-11.5855
FIFA	-11.5855
何もかも	-11.5857
ラリー	-11.5858
ことはなかった	-11.5859
ヴェー	-11.5859
気がする	-11.5861
名所	-11.5861
▁You	-11.5864
総選挙	-11.5864
を開始し	-11.5864
さえも	-11.5865
必死	-11.5868
の入口	-11.5869
/20	-11.5873
バッグ	-11.5873
概ね	-11.5873
長谷川	-11.5874
1938	-11.5874
レッスン	-11.5875
多くは	-11.5876
れぬ	-11.5877
洛	-11.5878
の言葉を	-11.5878
心も	-11.5878
が求められる	-11.5879
▁1970	-11.5879
-35	-11.5881
グー	-11.5881
という思い	-11.5882
ユーロ	-11.5882
▁over	-11.5882
能く	-11.5883
MR	-11.5885
かわからない	-11.5886
細菌	-11.5886
重視	-11.5886
復讐	-11.5888
サウンド	-11.5893
存じ	-11.5893
によるもの	-11.5893
提案する	-11.5894
その日の	-11.5895
▁そのうちに	-11.5895
でございましょう	-11.5896
イチ	-11.5896
敢	-11.5896
鯉	-11.5898
排水	-11.5899
を選んで	-11.5899
手法である	-11.59
試合で	-11.59
最初から	-11.59
手間	-11.59
津市	-11.5901
attention	-11.5902
利点	-11.5905
□	-11.5905
患	-11.5905
を取り上げ	-11.5906
を占める	-11.5906
サウルス	-11.5907
南西	-11.5908
衝撃	-11.5909
西日本	-11.5911
を取った	-11.5911
わしの	-11.5913
▁その中で	-11.5913
▁この結果	-11.5914
活発な	-11.5914
危機管理	-11.5915
本名	-11.5915
統計的	-11.5916
をふり	-11.5916
軍隊	-11.5916
十二月	-11.5917
音声認識	-11.5917
お帰り	-11.5917
リイ	-11.5917
ユーザの	-11.5918
の判定	-11.5919
フォーク	-11.5919
神宮	-11.592
に限らず	-11.5921
産業振興	-11.5922
たちを	-11.5923
社会貢献	-11.5923
なんとなく	-11.5923
を愛し	-11.5923
議事録	-11.5924
マナー	-11.5925
昆虫	-11.5925
登板	-11.5926
化学物質	-11.5926
山中	-11.5927
▁Ab	-11.5927
を同時に	-11.5928
を問わず	-11.5929
登場した	-11.5929
つけられた	-11.593
ニコ	-11.5931
からぬ	-11.5932
二十四	-11.5933
会った	-11.5933
しようとした	-11.5934
たぶん	-11.5934
の成績	-11.5935
count	-11.5935
するようになった	-11.5936
爺さん	-11.5937
その場	-11.5937
アピール	-11.5937
スカイ	-11.5939
ギュ	-11.5939
従って	-11.594
るのも	-11.5942
だそうです	-11.5944
COVID	-11.5945
▁Corpus	-11.5945
明確な	-11.5946
long	-11.5946
体調	-11.5946
めいた	-11.5946
を買い	-11.5946
ウェア	-11.5948
戴	-11.5948
親類	-11.5949
を導入し	-11.595
1936	-11.5953
off	-11.5954
働きかけ	-11.5954
をおこ	-11.5954
いよ	-11.5955
重量	-11.5955
宮殿	-11.5956
参ります	-11.5956
憧れ	-11.5956
一面に	-11.5956
戰	-11.5957
ご自身	-11.596
と云つた	-11.596
ッパー	-11.5961
北陸	-11.5961
lab	-11.5962
▁この間	-11.5962
あの女	-11.5962
アメリカ人	-11.5962
はございません	-11.5963
もとより	-11.5964
β	-11.5965
ライオン	-11.5966
が可能な	-11.5967
範疇	-11.5968
イニング	-11.5968
ごはん	-11.5968
零	-11.597
焔	-11.597
皆さんに	-11.597
農林水産	-11.5972
github	-11.5973
一目	-11.5974
キッチン	-11.5975
そんなもの	-11.5975
入浴	-11.5976
ふくしま	-11.5976
を実現するため	-11.5976
樽	-11.5977
チラ	-11.5977
が違う	-11.5979
サンド	-11.5979
position	-11.598
sur	-11.598
が持つ	-11.5981
芸者	-11.5982
対象外	-11.5983
くださった	-11.5983
ものではなく	-11.5983
優秀賞	-11.5985
逃げる	-11.5985
をかける	-11.5986
戯	-11.5986
拡	-11.5987
生産者	-11.5987
覗き	-11.5988
漆	-11.5988
疾病	-11.5988
▁deep	-11.5988
懸け	-11.5989
田辺	-11.5993
スクリーン	-11.5993
隠居	-11.5993
尋常	-11.5995
づき	-11.5995
AE	-11.5997
荒れ	-11.5997
月現在	-11.5998
▁Adam	-11.6
を見つける	-11.6
もう一	-11.6
より多くの	-11.6
を計算し	-11.6001
紹介する	-11.6002
なんにも	-11.6002
▁multi	-11.6002
arg	-11.6003
いやな	-11.6003
ピカ	-11.6003
代表として	-11.6003
ュ	-11.6004
大橋	-11.6005
ショット	-11.6005
ロビー	-11.6005
ニューラルネットワーク	-11.6006
炎症	-11.6006
search	-11.6007
かゝる	-11.6007
入館	-11.6007
ご予約	-11.6007
会見	-11.6007
を楽しんで	-11.6009
持つて	-11.601
もとの	-11.6011
ヴィル	-11.6012
する者	-11.6012
通う	-11.6013
cur	-11.6013
ONE	-11.6013
▁JAPAN	-11.6013
いじ	-11.6014
答へ	-11.6014
ene	-11.6015
ーニ	-11.6015
合戦	-11.6016
を知っている	-11.6016
すぎた	-11.6017
巳	-11.6017
.32	-11.6018
国民健康保険	-11.6018
ネン	-11.602
さつ	-11.6021
LC	-11.6022
経済産業省	-11.6022
ult	-11.6023
スタートアップ	-11.6023
▁申込方法	-11.6024
畜生	-11.6024
痕	-11.6025
書かれて	-11.6027
▁そのうち	-11.6027
辿	-11.6027
エディ	-11.6027
大阪大学	-11.6028
副詞	-11.6028
等による	-11.6029
団体等	-11.6031
さずに	-11.6034
を増やす	-11.6035
模型	-11.6036
なっています	-11.6036
寿命	-11.6037
ダイヤル	-11.6037
思っている	-11.6038
ノス	-11.6039
だて	-11.604
こゝに	-11.6041
魏	-11.6041
́	-11.6041
▁It	-11.6041
石炭	-11.6042
1951	-11.6043
▁殊に	-11.6043
メンテナンス	-11.6044
2-8	-11.6044
られぬ	-11.6044
飼育	-11.6045
▁本節では	-11.6047
親戚	-11.6047
行けば	-11.6047
チー	-11.6048
に大きく	-11.6049
征服	-11.6051
Top	-11.6052
狙	-11.6053
べきもの	-11.6053
cept	-11.6053
なきゃ	-11.6053
を経験	-11.6055
年までに	-11.6055
のニーズ	-11.6056
一座	-11.6057
出ない	-11.6058
▁natural	-11.6058
待っていた	-11.6059
代々	-11.606
古くから	-11.606
遙	-11.6061
運転手	-11.6064
液体	-11.6065
を歴任	-11.6066
産業界	-11.6067
知つて	-11.6067
クリストフ	-11.6067
のあいだ	-11.6067
無理に	-11.6068
えらい	-11.6068
職員が	-11.6068
メダル	-11.6069
センス	-11.6069
通勤	-11.607
薪	-11.607
終わって	-11.6072
でありながら	-11.6073
情報学	-11.6075
を活用する	-11.6075
共感	-11.6075
ash	-11.6076
8%	-11.6077
椅子に	-11.6079
ペー	-11.608
いるのか	-11.608
1-8	-11.608
彼自身	-11.608
本格	-11.6081
1937	-11.6081
名誉教授	-11.6082
ひっ	-11.6082
で開催される	-11.6083
漏れ	-11.6083
っぷ	-11.6083
ira	-11.6084
て行った	-11.6085
PI	-11.6086
月間	-11.6086
明日は	-11.6087
くつ	-11.6087
防御率	-11.6088
美容	-11.6088
マグ	-11.6089
愁	-11.6089
Hiro	-11.6092
なすった	-11.6093
目指す	-11.6094
計算機	-11.6094
詐欺	-11.6095
ise	-11.6096
粛	-11.6096
還元	-11.6097
紺	-11.6098
tent	-11.6098
にすぎない	-11.6102
氏と	-11.6102
fi	-11.6102
連想	-11.6102
枠組み	-11.6102
book	-11.6104
釘	-11.6105
セグメント	-11.6105
みてください	-11.6105
而	-11.6106
ature	-11.6106
you	-11.6108
腎	-11.6108
モス	-11.6108
那須	-11.6108
▁Sentence	-11.6109
ミュージシャン	-11.6109
この際	-11.6109
薬局	-11.6109
法的	-11.6109
東区	-11.6111
パイロット	-11.6111
各国の	-11.6111
死な	-11.6111
が現れ	-11.6112
スピーチ	-11.6112
ct	-11.6114
影を	-11.6115
始めました	-11.6115
彼れ	-11.6115
十字	-11.6116
様式第	-11.6117
岡本	-11.6119
何人	-11.6119
ということである	-11.6119
富岡	-11.612
んだり	-11.612
よそ	-11.6121
空軍	-11.6121
▁対象者	-11.6121
日にかけて	-11.6122
フィル	-11.6123
を機に	-11.6124
交通安全	-11.6124
薬剤師	-11.6125
地方公共団体	-11.6125
レコーディング	-11.6125
拾い	-11.6125
全域	-11.6126
大な	-11.6126
分野における	-11.6127
大佐	-11.6128
博多	-11.6128
が入って	-11.6129
五百	-11.613
深刻な	-11.6131
ense	-11.6131
動脈	-11.6131
継いだ	-11.6132
ふじ	-11.6133
教科	-11.6134
困り	-11.6134
実験を行った	-11.6135
▁当初は	-11.6135
佛	-11.6135
岬	-11.6137
つ目の	-11.6139
世界中の	-11.6139
んだけど	-11.6142
来日	-11.6142
late	-11.6143
[...]
